/**
  ******************************************************************************
  * @file    network_data_params.c
  * @author  AST Embedded Analytics Research Platform
  * @date    Mon Aug 26 20:58:26 2024
  * @brief   AI Tool Automatic Code Generator for Embedded NN computing
  ******************************************************************************
  * Copyright (c) 2024 STMicroelectronics.
  * All rights reserved.
  *
  * This software is licensed under terms that can be found in the LICENSE file
  * in the root directory of this software component.
  * If no LICENSE file comes with this software, it is provided AS-IS.
  ******************************************************************************
  */

#include "network_data_params.h"


/**  Activations Section  ****************************************************/
ai_handle g_network_activations_table[1 + 2] = {
  AI_HANDLE_PTR(AI_MAGIC_MARKER),
  AI_HANDLE_PTR(NULL),
  AI_HANDLE_PTR(AI_MAGIC_MARKER),
};




/**  Weights Section  ********************************************************/
AI_ALIGNED(32)
const ai_u64 s_network_weights_array_u64[25572] = {
  0x3e29d764bd73eac8U, 0xbd51e1133e0ad8e7U, 0x3c8ef7053dd6e50bU, 0x3ec17ac23e0408e8U,
  0xbcd9675b3dc47d6eU, 0x3d88ddca3e005c32U, 0xbd941ffe3e0d9998U, 0xbe12d75ebe052171U,
  0x3dc5dba0be331aeeU, 0x3e14d2993de5342bU, 0x3dd4bfeabca1e2b7U, 0xbde8f5be3e050274U,
  0xbe1985433cbbd5eeU, 0xbd3e59113d0a2ee3U, 0x3c9acb673d942863U, 0xbc70f5da3da21f22U,
  0xbd18140cbdb2f7b0U, 0x3d1d8cfa3dc884ffU, 0xbd831bb43e3e069cU, 0xbe241fccbe86c569U,
  0xbe15a2c6bdef990cU, 0x3e8ec5053c2b6305U, 0xbe3a7de7bdec8bbcU, 0xbd33df183d315b3bU,
  0xbcda256a3e88bb01U, 0xbe964c7b3e1d6b40U, 0x3cd51a3bbdcd531bU, 0xbbfb11013d79da6bU,
  0xbd99e3f63eaf537fU, 0xbe43401ebbeecfbfU, 0xbb99cdac3e09780cU, 0xbdd7ec053a47ead6U,
  0x3d0791d1bd10cc9cU, 0xbe17035f3bc51b6eU, 0xbd9c58adbae71387U, 0x3b8604efbdc3f774U,
  0xbde53365be71baa3U, 0xbcb8b4453e246304U, 0xbe882da9bd8459a5U, 0x3e356aa23ca970b7U,
  0xbe3d994ebcdd7a64U, 0x3e3c2303bd6dd897U, 0xbe5e84203d8448bcU, 0xbe4221ee3ea7d101U,
  0xbde5329dbd8a19c6U, 0xbdbca5e8be37a07eU, 0xbca841533ecd5e61U, 0xbe3c43d03ec6c722U,
  0x3d12417bbe41b476U, 0xbe2603e4bd474cafU, 0xbe45b27dbdaa13e3U, 0xbd72e6773de11010U,
  0xbe0274983d48bd33U, 0xbe015c753d1ff91fU, 0x3dac13743e284ab7U, 0x3e4e5419be407eb0U,
  0xbe187f333e6c5958U, 0xbdf28f913e963a84U, 0xbde6a19abd82d761U, 0x3e488bf13e03cf8fU,
  0x38d77d863e4a25d5U, 0xbee7b0d5bd0ec3b6U, 0xbd629f283ea66784U, 0xbee639afbd56681aU,
  0xbd5a6cb93e7c465fU, 0xbd2ca8793e334088U, 0xbd418b993d8b0d0cU, 0xbcfa1cb9bd12d196U,
  0x3d1fac903dd90a4eU, 0x3d9a00febd301508U, 0xbd722e2c3c5eec65U, 0xbd2e4cb33d8d8606U,
  0x3e72a4e63e1a5d89U, 0xbdb556723e3a7543U, 0x3e0392b33dbf2172U, 0xbe08d6c83d7036b5U,
  0x3d7cb8d0bcd17bc4U, 0xbd87814abd7303d9U, 0x3ed8924e3e83ee56U, 0xbc83eee7bdec76a3U,
  0xbddd3fc7bb326cc3U, 0x3d69b30c3d1d7ee7U, 0x3d939100bd8ebd4aU, 0x3e95d0733c3f02d3U,
  0xbde1775dbc15468dU, 0xbd8dd2ccbd2eee63U, 0x3d2a96c03d097fa8U, 0x3dc475a33dbdaa10U,
  0xbe441da0bdd54a74U, 0x3e1e5d99bc7a96acU, 0xbd028175bd941150U, 0xbd862a183e345930U,
  0x3dfad647be3d6a34U, 0xbe861f1ebde630e7U, 0x3dbf9b9dbe3038efU, 0x3dabfc993e1cede0U,
  0xbdb25903bde7e955U, 0x3ea7081ebe85372cU, 0x3e27c6743ddc773eU, 0x3d22100d3d8c7531U,
  0x3ce7f0d3be27a9ffU, 0xbe1740f2bea67fb5U, 0xbdf884b73e040ce7U, 0xbe271e36be05de3bU,
  0xbda0cf5ebd3774c5U, 0x3dadc948be051a8bU, 0x3e0387fc3cf7b14dU, 0xbe391c05bdbcdafcU,
  0xbc5e60bd3d922e66U, 0xbe683dcfbe7a0df3U, 0xbe7ad7173da57ea1U, 0x3c63e07e3dcb847eU,
  0xbe0a5d323e1b669bU, 0xbdb8f5f33e8674b1U, 0x3eb8dd89bc1d9b2cU, 0xbe6fb47a3cc7f619U,
  0xbe003235bdac6e1bU, 0xbe80de823daa663eU, 0x3d695460bdb57014U, 0x3d95957a3ec36e49U,
  0x3dbc787dbe2003a2U, 0xbdcde54f3d36e057U, 0xbd36b825bd8355aeU, 0x3d868f2bbd02cdffU,
  0xbd17ca9abd497abbU, 0x3d81f107bde8d48fU, 0xbe0ab32539e90602U, 0x3caa09adbd943f9bU,
  0xbe4ddd0ebea9fc7bU, 0x3e319bb9bd93f847U, 0xbe051be5bce86b89U, 0xbdbbdb1c3d7afd5cU,
  0xbda22ca7bd9684b7U, 0xbe08220dbdceb429U, 0x3e53833cbe893d60U, 0x3dc1c997bcfdb718U,
  0xbdee455fbee74058U, 0x3e2a0b0d3d8c7d28U, 0x3d04d7eabde9fb42U, 0x3d3a0add3dc8d433U,
  0x3d5656193d1846d1U, 0x3d194f563babb0f4U, 0xbbcc640abd45fe13U, 0x3dd283213dab2123U,
  0xbe8ff912be2dfce7U, 0xbe113c0c3e473a22U, 0xbd1d9254be1362b3U, 0x3b8bb6cd3ec5e35fU,
  0xbe1e5b63be58e7d8U, 0xbe6f41653e581d84U, 0x3d60b77dbacc1e3eU, 0x3cf96db6be84985dU,
  0x3dbd0dafbcd18cd9U, 0xbe5e5dedbe18e04bU, 0xbe410246be9f4855U, 0xbddca8883e682c65U,
  0x3e0f7f30bd980ed5U, 0x3d7f87be3c9a8039U, 0x3d8c7efd3d609a0fU, 0x3c023c95bdb19e40U,
  0x3d9ddeccbce44bb4U, 0x3dbeb208bd95ce6dU, 0xbe1d16a03e05409dU, 0x3dc7f556bef2cd5bU,
  0x3b814f2bbc66a3d9U, 0xbea6cba8bdd7f16cU, 0xbddf2389be1008d0U, 0x3e628aef3d7a3d86U,
  0xbe33d1f1bea9967bU, 0xbec4fb32be22c19cU, 0x3dd7ea123cae0910U, 0xbe5580a83df0cff5U,
  0xbda4969d3dec9678U, 0xbe149a333d3e8815U, 0x3e5cea1bbbe2e1f4U, 0xbda45405be1c4f6fU,
  0xbc547baa3dfa8e8eU, 0xbdb57e583caa5342U, 0xbc0efb353e031e95U, 0xbc66fc293b9d6e8aU,
  0x3c3d5993be64641cU, 0xbd40b624bd8c2824U, 0x3ecf55cebe118697U, 0xbd39434cbc7a2171U,
  0xbddd7f08ba28b4fbU, 0xbe4a711dbec44fe4U, 0x3da1db8cbcddc2e2U, 0xbe5f0ad0be9cb3f6U,
  0xbe086d013ea945b9U, 0xbdd0f44a3e9a0d12U, 0x3e7a75c7bd3a6687U, 0x3d0a4177bdce571aU,
  0x3bed5a173d839426U, 0x3ae322d4bdfd6ce0U, 0xbc32aac33dc45c1eU, 0xbe05c4d7bcfa7e75U,
  0xbcc9f5d5bd6224d2U, 0xbcb6c30d3deb982aU, 0x3e2810c0be7537a3U, 0x3de4040ebd0a58b1U,
  0x3c5789dfbe65533fU, 0x3df81bd53e1d87f1U, 0x3dba45f13ca6912fU, 0x3ebdd540bdde4ee6U,
  0xbe9281c53ef139c3U, 0x3e09c916be5ff9e8U, 0xbe37f5983e2ab71bU, 0xbe62899c3e304706U,
  0x3ca8cf66bdf730afU, 0xbd56aaac3cfe4804U, 0x3deb4caa3d699d07U, 0xbdb648223b94fd98U,
  0x3b9627383be53bf6U, 0xbda15aec3c1c7300U, 0x3ad458243c71c48fU, 0xbd54f3d6bde12a0eU,
  0x3e9ec5ef3d9e9d4eU, 0x3d8c32b73d3db512U, 0xbdcd91e43e2c3c03U, 0x3e46c5d7be1a9d1aU,
  0xbddfa9eabded0057U, 0x3e62fb55be72123fU, 0xbe53d3b23eb7beb9U, 0x3dfca205bea55326U,
  0xbe9b59afbd2574d7U, 0xbcfb8d963da45782U, 0x3c49a4823e3b95a0U, 0x3e025ec3bd291517U,
  0xbba2444a3dd2fa44U, 0x3de2773abd13b211U, 0x3d12bcc23dc11800U, 0x3d379389bc3d222cU,
  0xbd97faddbd9b3063U, 0x3e11f6223c02d393U, 0x3e88f8703d8c0798U, 0xbe5e00e3bec742bfU,
  0xbedf2af9bd3ec860U, 0xbf0466233cda86adU, 0xbd8c246c3d96a53fU, 0x3e80a762bdd67d9fU,
  0xbea415453d9a71a4U, 0x3e6e46413e37eeb0U, 0x3e32a72b3cba0e7aU, 0x3dac9910bcd9c80bU,
  0xbe3c64d03e47827bU, 0x3d0053113d841b6aU, 0xbc49d578bcdebd5dU, 0xbd7813793d89dac8U,
  0x3d52657dbd607b39U, 0x3cbeedfc3b012cebU, 0x3cd6874ebda1de36U, 0x3dda59cbbdc2fb8aU,
  0x3e478542be329508U, 0xbe0bd98c3d22b9cbU, 0x3d61913e3eaaef3cU, 0x3e92bdc33deb83b8U,
  0x3d9b15403d9a3b12U, 0x3e40fad23ccdd149U, 0x3e07df99ba9b4642U, 0xbd11a4893d11ab49U,
  0x3d004a1e3bad978bU, 0x3e5880353e2abb3aU, 0x3e801a3a3df17cafU, 0xbe0b2a483e2de378U,
  0xbdd58e58be788220U, 0xbda7d768be11747fU, 0xbe058b27bd7f7cbeU, 0xbe298fa7bcebf37eU,
  0x3d66663ebdda6587U, 0xbd883ce63e17b92bU, 0x3e71b4a43cc0cdccU, 0xbe1432fd3d282dfdU,
  0xbeb70c413e14f842U, 0xbe2ab97f3e0e2e43U, 0x3d3575053d5e53abU, 0x3e8829f6bb3c25aaU,
  0x3e5dbca0bd1af9d4U, 0x3eaa26ee3d5affceU, 0x3cb91d36be8ece14U, 0xbe3c4e0fbe0790d1U,
  0xbd421100bc9be4a4U, 0x3de124493e2aecb1U, 0x3d486989bdc41da4U, 0x3d2c1c8dbe4a95b6U,
  0xbdbfeca33cc87767U, 0x3d12db57bdc4c119U, 0x3dc99bec3e17f0fdU, 0xbde69c613dc17995U,
  0x3e48cdb5be921464U, 0xbd32e391bd20a2ffU, 0xbe4b16a0bdad22b4U, 0x3e894c243e97d033U,
  0xbc1163d4bd9610e8U, 0xbd681062bde39f89U, 0xbee61d2bbd3ce932U, 0x3e338cfdbdced76cU,
  0x3ca9dcb3beb6c9deU, 0x3be1cd7f3c943d33U, 0x3e2c45a3be8ad2dbU, 0x393284f9be0b0f4dU,
  0xbc8fd6e3be224edcU, 0x3da15e62bdaecff0U, 0xbe1ffc633c811231U, 0x3d37db813d3e4585U,
  0xbd841506bd93efe3U, 0x3ce04ec93d31f376U, 0xbe1037debda7dda7U, 0xbe677b2b3e34dc19U,
  0xbb291eab3e7030e4U, 0x3eba4742be22b5abU, 0xbdf8a01cbc989d80U, 0xbe437e353cc0307fU,
  0x3e42dfb1bea2a11aU, 0x3e216ebdbeb730a0U, 0x3db59c6a3d8428daU, 0x3de5aae73e01d211U,
  0xbb9f42f43d602fe1U, 0x3d6447bb3d62755eU, 0x3d6487023e033c03U, 0x3c50c127be1ee9d1U,
  0x3de067723d2ce617U, 0xbe0f33e7bd3140a0U, 0x3db2863d3caef1ccU, 0xbe0dafa2bd417c6aU,
  0x3e836c9abe21ed46U, 0xbdb5cad53cacb9bdU, 0xbd95d72fbe76b940U, 0xbc54f9a13df6466bU,
  0x3e5b1f293d6b0fd0U, 0x3e8300f6bbda466dU, 0x3e93c7f53e8e650eU, 0x3edec616bdbd13b5U,
  0xbe3258133de625beU, 0xbe656b8fbd7b7d5aU, 0x3ce091d2bd000670U, 0x3e940afa3d5dada1U,
  0x3d3375c5bd719dbbU, 0x3deb9ce23d33091eU, 0xbde9f7b83da8b257U, 0x3e0bc8e63d9e16c4U,
  0xbdcaca7e3ca7fe72U, 0xbd844b12bcb3a954U, 0x3d2e5dbf3d0604b7U, 0x3e4d081d3dd40fd9U,
  0xbd5932d9be324903U, 0xbe420e333e330261U, 0xbe2df514bda11aedU, 0xbe6d06653d871c70U,
  0x3defc112be89ba47U, 0x3dde68c53e8de1b8U, 0xbdfe3864bea8f2daU, 0x3e0de2b03e8fa5e7U,
  0x3d36fb033d0149fbU, 0x3e1330d43e3b2049U, 0xbda23de5bd9cabb2U, 0xbca4cc88bd2df2eaU,
  0x3d60b5093c11a9e8U, 0xbd708d7d3e42e0ddU, 0x3d414517bdd8b7f3U, 0xbbcc421d3e03e545U,
  0xbc233654bd46ceb6U, 0x3e80c4c3be448d21U, 0xbdb2b8d2be50fb00U, 0xbe820698bb437eb1U,
  0x3dcc785cbe312750U, 0xbc9db2073da47ce3U, 0x3eb3a6d8be662058U, 0x3e13118fbd2ba9b4U,
  0xbe10d4a1be0be076U, 0xbc2e866bbcb2fc08U, 0x3d89c8e1bded3b21U, 0x3d70d043be22848eU,
  0xbd4495c83ca37970U, 0xba1051bf3d060f03U, 0xbdf54d72bd29462cU, 0x3d3ca8373d483c87U,
  0x3dc63d2fbce3b28fU, 0x3de0ff2fbd6eeecfU, 0xbe8f4e713debbbc9U, 0xbe12ccdf3e37ed07U,
  0x3e1a7c5dbe254787U, 0x3ee13b11be7beeafU, 0x3d0d44c93d4613d5U, 0x3c8595e5be2309c6U,
  0xbeada3e0bd6f5aabU, 0x3e7aa9493e067c68U, 0xbe15c45b3e39a41aU, 0x3c677e5bbe13a7adU,
  0x3ca3ccb93e5190cdU, 0x3aa95b5e3e27f91dU, 0x3c99c76b3e19c803U, 0x3e0bbb4dbd0d2d49U,
  0x3def3c323ba5f709U, 0xbbca10c3bd1537f9U, 0xbb899733bd9ae456U, 0xbd73e1fc3acdcd82U,
  0x3cbd7c2a3dddc615U, 0xbce523953ec28c67U, 0xbdd61fd5bea49645U, 0x3e998e15bdd622ceU,
  0xbdb7c7dcbd90eb02U, 0xbdf284c9bcaed16dU, 0xbed5ba47bc84660eU, 0xbed1681cbe332ae9U,
  0xbe12eb10bd840df9U, 0xbd8f464e3d789222U, 0xbdbe6b913cbe4862U, 0xbe9a3f253d508b33U,
  0x3b33c6c0bc4fe917U, 0x3dce499bbe3f23ffU, 0xbd4c833a3e02309dU, 0x3dca11313dfb1e14U,
  0xbdfee2193bd24f9dU, 0xbcbef9063dca157fU, 0x3e67c25fba76421fU, 0xbcc0a2dd3d89ed8bU,
  0xbe33bc673d091ea4U, 0x3eecddd1bd8ccdb8U, 0x3cebe4323d8ad849U, 0x3e0833ea3d803d21U,
  0x3d9c79ff3e1ea01cU, 0xbdcac4e63ee9d3d5U, 0x3d286412bb55aa73U, 0x3df5d6ee3caa4be8U,
  0x3e55abea3ec1f9e4U, 0x3dc036c63e75361eU, 0x3d468f3dbe23d6aaU, 0x39e31fe73d255ddbU,
  0xbd8b739dbabc3973U, 0x3dce292e3dd382e2U, 0xbd42771e3d2561e5U, 0xbcb9abd2bcec55c8U,
  0x3e48a5253e5739c6U, 0xbc96b77b3dc49951U, 0x3c55a449be4753aaU, 0x3d0d2535be53f4f8U,
  0xbe0f5c15bbcb2b2dU, 0x3e4d3dc8be17fa90U, 0x3e51c5abba2b8d2aU, 0xbea3d5103e2ed91eU,
  0x3d958b66bd12cf78U, 0x3d7ef27cbcf4f3b7U, 0x3bacfaaabdbe0b71U, 0xbde75ae73d80a777U,
  0xbe65af6b3db513caU, 0x3e12ec853bde1969U, 0xbd9d8548bdd85ed8U, 0xbd93ed763e3c3d60U,
  0xbd977af6bded43f9U, 0xbcb9e126bceb06fcU, 0x3d7ef11cbc34a693U, 0x3d5dbb2c3e372018U,
  0x3cbf8718be653f2dU, 0xbe9850a3bde397a9U, 0xbd973d01bcbdea49U, 0x3d3396e4bda9d6bfU,
  0x3e1fcd02be16b6b2U, 0xbeaa1abe3cf7e749U, 0x3e31589b3cdc430aU, 0xbea827253e4eb143U,
  0x3c3eba83be948cffU, 0x3db7bbda3e1f1b9cU, 0xbd1fddfabe07e479U, 0x3d2b5362be8247ecU,
  0x3d7cd948bd170b10U, 0xbc349f7f3dc4b0feU, 0xbd50cb493d56bfafU, 0x3d1255a63de75483U,
  0xbe88bf26bc9d97b5U, 0xbc188f493d74f304U, 0x3e34ce2d3b6f6edbU, 0x3f18ab103e37656dU,
  0x3c7a37983cb4e9aeU, 0xbe50e2f93d188448U, 0xbe1ec425be8738d0U, 0x3e18db36bea0e3f2U,
  0xbe1b73793da27abaU, 0x3d3ed6d83de8aca3U, 0xbda82bc8be4e46e4U, 0xbd52b3bd3e108f54U,
  0xbd49ef013c1c8ea3U, 0x3cbb20e13ca06c45U, 0x3b326f1ebd56aa4aU, 0x3d8a0fbbbdb99b8fU,
  0x3c5e99e1bd331312U, 0xbccaf41f3d24bc65U, 0xbd609fd2be24e0caU, 0xbe0fe40bbd0a33d6U,
  0xbd4af895be66bc5eU, 0x3e80bdfe3d9a9adbU, 0x3d657e26bde6a081U, 0x3df1012f3e0e9cb4U,
  0xbdfb0a79be76b36eU, 0xbe621acdbe4000f8U, 0xbdee25e93e1c980dU, 0xbe0150ed3e12fc80U,
  0xbbc0155dbe288683U, 0xbe20dcb13d66e9e4U, 0xbd1967bb3cfb2c86U, 0x3db401dc3c9710d6U,
  0xbdaa48783c12dcfaU, 0xbd6d5fd5bd0ab09eU, 0x3e02e231be1847d6U, 0xbcc409853cf72c15U,
  0xbe45c90e3d5d020dU, 0x3d7ef05b3d17a195U, 0xbe8dc9cc3e026166U, 0x3de7eea23ea8a7b9U,
  0xbd8c9995bdc76f11U, 0xbdf940dabc467a31U, 0xbb4a08fbbeb0b920U, 0xbe88975dbdb72309U,
  0x3e0043e6be705e16U, 0x3e318d763e97b161U, 0xbe0c3e96bebdceb5U, 0xbd3483adbebb5728U,
  0x3da393a83d7a67d3U, 0x3ac890c73e595617U, 0x3d5937d23a3d1fdaU, 0xbd35b49dbd8d3d6eU,
  0x3b98a0e5bc80c935U, 0x3d1525f8bd7884f1U, 0xbd82db09bd956b27U, 0xbe5ffd5ebe8352a7U,
  0x3e06de513dde99c6U, 0x3e572eb4bd686438U, 0xbe308013bde7f6a6U, 0x3bf6e2413de1e518U,
  0x3e75f3c8be487df1U, 0xbc78b2c53e25caf8U, 0x3e01715fbdfde13dU, 0x3e1038ff3d7548e6U,
  0x3e8cbc78be82ce27U, 0x3ed640bfbe0a9af6U, 0x3b1af96bbe15d387U, 0x3cf52ab1bd0c4d26U,
  0x3d835c5c3c9d0a89U, 0xbdbfc69bbd66ab2aU, 0x3bb630383ca3ab83U, 0xbd97891ebc5c5d00U,
  0x3e69e74dbe3467e4U, 0x3d6c98a1bdb4c775U, 0xbe0381e3bd845ce4U, 0xbc87ddc93e50b671U,
  0xbdaf13ea3e035f7eU, 0x3e92a91b3ea9b8f0U, 0x3e23b4a53e32e676U, 0x3e124930be8aafe7U,
  0xbe8ba5b53cd447ebU, 0xbc82bd033eaf6d18U, 0x3e83eb0abc99c07cU, 0xbd0fb7dd3c7f169fU,
  0x3c8e5cb23d0f2083U, 0xbd9476b83d9cf68eU, 0xbd837452bab972f4U, 0xbd3ee90fbbd65334U,
  0x3cc60c183d50447fU, 0x3d2abe2dbda7909bU, 0xbdbd1ff53db12b65U, 0x3d6a5170bc8c6455U,
  0x3e04527f3deabba7U, 0x3dcdae03be01405eU, 0x3ce213ac3e1ee2abU, 0xbcbfb43abd2b6fbbU,
  0x3e82a9c9bee786d4U, 0x3db6f056be59a331U, 0xbddc139bbeb107e0U, 0xbd0882393c4de80bU,
  0xbd8e2ce0be1c47c1U, 0x3e9bfe933dfce887U, 0x3c965f9a3d0e6795U, 0x3d6cd75a3d85d169U,
  0x3d2ca7603cdcaa94U, 0xbc93013abd52e546U, 0xbdd107983d04db8cU, 0x3c5d10a2bcd28af9U,
  0x3d9cbd73bd088c2bU, 0x3e4cd3a7be37ff4fU, 0xbe3bc1763d8241b1U, 0xbeb0e09bbe8bd676U,
  0xbe127b99bca5e16bU, 0xbe01036abc7020ceU, 0xbe83c8ddbe93b492U, 0x3ef11aa8bb359159U,
  0xbd03e9ebbe592ef0U, 0x3d1ef9e63de37b03U, 0xbdd30655bdf809eaU, 0xbdb6efa03d1a9f47U,
  0x3d519d3a3d969d57U, 0x3e4e2f73bc707587U, 0xbcd8208c3dda4886U, 0xbd1e32223d1c036cU,
  0xbc89fc27bda42f31U, 0xbd092cffbd4843adU, 0xbf1010943e80a7feU, 0x3e95c2ad3e1dec83U,
  0xbe2db1573e24dd7cU, 0x3ec806b63ddcb701U, 0x3d81328c3db32672U, 0xbe330a8a3e1534baU,
  0x3cd24eaebe759049U, 0x3e11d434baf6bec0U, 0x3cb82ec4bdf2a0bfU, 0xbc89e7b83d8d9fa6U,
  0xbdae2bbe3dce1466U, 0xbccf1ca8be1faea8U, 0xbc00e811bd4f44b0U, 0xbd90d917bcdb48daU,
  0x3c6707a1bbde9180U, 0x3dd1e990bc62a665U, 0x3da2d986bd3d796fU, 0x3c9730973d3af30bU,
  0x3ed36b00bc652ec2U, 0xbe8be0803dabfc8bU, 0x3e83b8393e8ce9b8U, 0xbe6ae272bdea97aaU,
  0xbe04659b3a8cd78eU, 0x3ea690fbbd7d57cbU, 0x3e0581003bc70785U, 0x3eaaf72dbe654100U,
  0x3dabfd8e3e33682bU, 0xbc5a31df3d3066f5U, 0xbd5d842bbe5c9806U, 0x3dbd6946be0b4c97U,
  0x3d755b03be0c31abU, 0xbd45432a3d254cf1U, 0xbd17b3c83d1555deU, 0x3df0387a3e0c9efcU,
  0xbd6813cb3dabb27cU, 0x3d6c44a23e031797U, 0xbead44d8be68a262U, 0x3e1a388a3e64ecafU,
  0x3ddb1c0cbdbc783aU, 0x3c72af1a3d8c918eU, 0x3dbe3baabd8b1133U, 0xbe01656a3e6be6beU,
  0xbd5778c8bd63eadaU, 0x3e8e7f273ddd66caU, 0xbbbd7ff93cd1b94aU, 0xbdd8f24d3e1e9ba6U,
  0x3bfe6777be187999U, 0x3cff6be2be23d709U, 0xba87211ebdc08cddU, 0x3caf20203c824c34U,
  0xbdb5c23fbe0c59baU, 0x3e2c07e63daafe0dU, 0x3d6ad468be3a0eddU, 0x3d6da5e6bde034aeU,
  0x3e119bc23cb28b4aU, 0x3e4b1c1fbb4d4fd1U, 0x3ba796093e1ae274U, 0xbec4fe373ea8ec1fU,
  0xbdf7abb9bda957ddU, 0x3e3d3e01bda4373dU, 0xbe226bcf3e178120U, 0x3df26e7ebe2cc87dU,
  0x3d830c07be10aee6U, 0xbd693c8a3c13e291U, 0xbdebfb4a3e81a145U, 0xbe0fa2b33ddc78cdU,
  0x3e49afdabe004280U, 0xbd9d1f733c15944eU, 0xbca212463ce58905U, 0x3cc837d3bdac022fU,
  0xbd03e4423d5e2cd2U, 0xbdca5d8abd8c6c90U, 0x3e8e28683e8b78ffU, 0x3e4ffeafbdcd0f69U,
  0xbea5ac593d5b0dc2U, 0x3c9b3f3bbdb76b1cU, 0x3dbfa7ab3e28eb76U, 0x3e84ab423cfafd9eU,
  0xbea0d25e3e8f5a30U, 0xbe9854893e2653cbU, 0xbe0977543ec6af0dU, 0xbd86ec51be0bb002U,
  0xbd3606ab3c9f0fb1U, 0x3e18f5593e17b4e3U, 0x3da29c8d3e5c3dcbU, 0xbd2d2daa3ca4792fU,
  0x3d0598a0bd3b5c63U, 0xb92ff64abd3d1f62U, 0xbd532b48bcc52b54U, 0xbd9f8611bd27db3fU,
  0xbdac1f4cbe0b7451U, 0xbe02fe4c3d85f3a4U, 0xbdae9c8dbbc03b6cU, 0xbd2b3d8a3d08705aU,
  0xbdde7f373c7576f2U, 0xbe2287c3bc849775U, 0x3d7d247cbe7f78ccU, 0x3d89d3babe23125aU,
  0x3e3193993d5bc5c7U, 0xbe0c21463d6bda7eU, 0xbe0263d1be842659U, 0xbd525c4a3cba6262U,
  0x3d374813bd7eb6b2U, 0x3d2682d53da31a20U, 0x3e06f0cbbd01437aU, 0x3d33f3f5bdcc0654U,
  0x3db178ae3d0aa681U, 0xbd1e422cbde61260U, 0x3dd057a9bd9fd01aU, 0xbe436c433e7a911dU,
  0xbddc573abe8cb83bU, 0x3e7177923e845e5dU, 0xbddae824bdaf8d95U, 0x3df0cc40bd7fa494U,
  0x3e4009eb3e4baed7U, 0xbeddec763cdcf7b3U, 0xbd3c92223db52a8dU, 0xbe886ebd3e46efc3U,
  0xbbf5fc23be455044U, 0xbe0b4628bc3d4a05U, 0xbd1e121fbb5478c1U, 0x3d1d89d03e567ad6U,
  0x3e0c3ce43d8948eeU, 0x3d1d50833c1bb192U, 0x3d8a5975bc17c888U, 0xbaf9565bbde2c499U,
  0x3e4367733e32025aU, 0xbd8568d63bc6dc6cU, 0xbcace5bebde7845bU, 0xbe68334fbd42fa45U,
  0xbdb7397d3cae4e61U, 0x3e6d43643d01d271U, 0x3ebb80bebd0e1220U, 0xbefdc69dbdaf4d4dU,
  0xbe185ce5bd4576f7U, 0xbe7e0222be15d33eU, 0x3e0efe27bda3c93bU, 0xbd4735143decafc5U,
  0x3c7da7623de48039U, 0xbdb0a36f3bbd7b44U, 0xbd76d0cf3d926e1fU, 0xbd48b4ee3da5bd71U,
  0x3d4741823db59b81U, 0x3d9c30e9bcc8acf4U, 0x3e22433d3bcb24d9U, 0x3e044d433db70c57U,
  0xbdec32dd3e801ecfU, 0xbe14eb043e8bd2adU, 0x3e0895563dcc467cU, 0x3ea78b133e3be313U,
  0x3cc8bc3a3d9fc00eU, 0x3e5f770abe28c128U, 0xbd6883733d95471eU, 0x3e10f34d3e8b8bf0U,
  0xbdcb446ebd271dd2U, 0xbe47b622bda00754U, 0xbd8583e53c3b5999U, 0xbd88b5c7bd238805U,
  0x3cff09e5bc5a7c9dU, 0x3d971c793c4e13f5U, 0x3c28cd1e3dced577U, 0x3c9421a83e004ca0U,
  0xbd9064223c316245U, 0xbd8845f2be0cc943U, 0xbc001f9d3e04322bU, 0x3df406583e741779U,
  0xbde1b3c7bdd4bbe0U, 0x3df88a6fbe1c4a10U, 0x3e0d4bfe3d3fceb8U, 0xbd24140e3e9a6d37U,
  0xbc350db93bf2615eU, 0x3d76ac5cbc0afd6aU, 0x3d8de1223e2b126dU, 0x3d6074b53d959971U,
  0xbe127efbbd936e2aU, 0x3d0cd66e3d14ec6bU, 0x3db78fe13cc7db82U, 0xbd6f3812bb26651cU,
  0xbd8e4073bd436776U, 0x3d4c2e24be01f665U, 0x3e005f7dbe8f2908U, 0x3cd4972bbe0879a7U,
  0x3e2e16233daf21f3U, 0xbe1a5fdb3d64ab30U, 0xbd234ecfbdeeac6eU, 0xbe500b5f3de9ced1U,
  0xbe835f553db26e37U, 0x3e6e014fbe988ff3U, 0x3e148f5fbd950e3aU, 0x3def4a1ebe6548afU,
  0x3e4c7b7b3cc64960U, 0x3eacbdefbed34757U, 0x3e052498bda79249U, 0xbd99fcdebd6a299eU,
  0xbdf7e2d7bd81b499U, 0xbd045be43d72955aU, 0xbc8ce3723d2f3048U, 0xbd17d4443cd750c0U,
  0xbc0b2f13bdbfb8f1U, 0x3dbd4c3b3e808bfcU, 0xbe505aa93e464c00U, 0xbe5bd8d83dbc5389U,
  0x3df00a583df4f61dU, 0xbbc574b53d5c3f3eU, 0x3df57305be1b36c3U, 0xbe9f84efbe418d3dU,
  0xbd1d1cd3be4b1b29U, 0x3ce507b83e3827ccU, 0x3bef8478bde43f66U, 0xbe56c6a3be0ba907U,
  0xbca3d68ebbdcb0c8U, 0xbe001e263c878a46U, 0xbdbee7db3d28d41eU, 0xbdc7a0e23d28c884U,
  0xbda884983c253af9U, 0xbd2a0edf3ccfb462U, 0xbe66de48ba9c95c5U, 0xbdb389963eb38a5cU,
  0x3d813cd63c0685eaU, 0x3e7c0f203e8de911U, 0xbc8e8ee9be1932c1U, 0xbd1ae152bddd3aa7U,
  0xbe6ca5bcbdd3e814U, 0x3e1844cbbc90a1baU, 0x3e4dd03cbe158bd9U, 0x3dfc8e843e417e2fU,
  0xbe8d11adbdf767a3U, 0xbc5232f83c1a4da8U, 0xbdad41c8bcbb4738U, 0x3e14bf213e2b8d32U,
  0x3df10a603cf75593U, 0xbc9bfa0dbd89feefU, 0x3d175fd0bdb49f69U, 0xbdf2382abcb88b1eU,
  0x3e84a9b63e963d76U, 0xbd83494bbe05e6f8U, 0x3e26dcebbcba4edeU, 0xbe6f5d7cbdcd17ffU,
  0x3c696ba6bcee7dd5U, 0x3e181a013e80f907U, 0x3b0f5cdc3d97a982U, 0xbe598ea73e824ab6U,
  0x3e0c5151bcd12fbeU, 0x3df7ac103e0c6abbU, 0x3a1f7075be1867d7U, 0xbde711e6bccf2a95U,
  0x3cc650f73dd58832U, 0xbdf588ca3c15c89eU, 0x3dc8305b3d024476U, 0xbe1e5c4abe4108feU,
  0x3d849e963b3667ecU, 0xbd72d1993db1fb16U, 0xbf03b73abc0f527aU, 0x3ead8970bd919d81U,
  0xbd1a56d03e14a243U, 0x3f06f5b0be181cd4U, 0xbcd66c593d8cc556U, 0x3e159ec63df9a070U,
  0x3d320a1b3dbb7886U, 0x3da651f33d9998eeU, 0x3dc33ff03e2d4794U, 0x3e8136a6bd9403b2U,
  0x3dd2b7263d694756U, 0x3e215eb23e32c401U, 0xbcfb1979bc20ad4fU, 0x3ce035943d444977U,
  0xbd4084fd3e1c83dbU, 0x3d4211e23c67bea6U, 0xbd18fab1bd5db6e6U, 0x3d7a5740bdacf460U,
  0xbdda1a17be4319caU, 0x3da3d0223eb2a106U, 0x3e1589313d2afdb7U, 0xbe231339bd43f6f8U,
  0xbc140bafbe218469U, 0x3ae8a9803e360439U, 0xbe2e9a9c3bd6653cU, 0x3d5ad7a4bdd7c78aU,
  0x3cf925dc3e3e3406U, 0xbdb76d3abe457b13U, 0x3e338f63bdfcd32cU, 0x3dfe914b3e025a44U,
  0xbe3566e9be0f6397U, 0xbe0e4e1bbd3533e8U, 0x3e10c083be3ea501U, 0x3c3fa82a3d3e888fU,
  0xbe0834d7bd884f59U, 0x3c817d5f3de974b8U, 0xbe1ad9a1bdaebdacU, 0xbe0993e7bcfe2eb1U,
  0xbc0577143e7b682eU, 0xbdc88c38be5da73dU, 0xbb2f45f83dbcc33cU, 0xbdd6610b3d3cba43U,
  0x3e88edbbbe792b7cU, 0x3f05e869be4003d2U, 0xbe3f6f5fbdf05bbcU, 0x3e82ec17bddb5840U,
  0x3e77ba04be776a98U, 0x3ea09f25be5fc17fU, 0xbd8662b03cb33167U, 0xbd6e3b823d2cfa1bU,
  0x3e0917ddbc298b9fU, 0x3da0c7ddbd362cbdU, 0xbdf2d2353c48bd9bU, 0xbcaeb83a3b7bbe62U,
  0x3d9f56833d2d6ebeU, 0xbdffb8ae3e5be1a4U, 0x3ea34d38bd8d0784U, 0xbe06e5923d62a7e1U,
  0x3d5d041dbe2b1efdU, 0xb8652874bc017da6U, 0xbe95a5a13df896e0U, 0xbe2a52523e3d360dU,
  0x3e1e3e913e05b065U, 0x3e4ee3723cfbc5bcU, 0xbe65965e3cda3dbfU, 0x3e24bba5be905d7bU,
  0xbd9fb4b03db62e15U, 0x3daf41df3c5d2853U, 0x3d7245ebbe363a60U, 0xbcaa8c4c3cbf37c1U,
  0x3e2c71aa3e692147U, 0x3e06becb3d9b35caU, 0x3e101034bc3e10e0U, 0xbcfb8e21be6c8e26U,
  0x3bc6978cbe5fe25fU, 0x3d5e10f43e889947U, 0xbd4bda4ebe36a777U, 0x3e561f0c3db71c8eU,
  0xbe878b403e102660U, 0xbde0f04abd222af5U, 0xbdca3de03e462e54U, 0x3e1e07ff3e832e64U,
  0x3d1d3ab5be746dc1U, 0xbe1042e7be1bbd91U, 0x3db8cdb83e121421U, 0xbe1dc5433e4f3a09U,
  0xbdb37c613ce48920U, 0xbd57a397bde478a8U, 0x3e4fe1d03e30cccdU, 0x3ca980e9bda0ce60U,
  0x3daed2e0bd16cdd6U, 0xbc91a0bdbecf7786U, 0xbecc86603d8a46bbU, 0xbd7c36dabed8049dU,
  0xbd91ff023d662ef9U, 0x3ed49c493df701a5U, 0xbe7dd72abe510be2U, 0xbe5defce3d141096U,
  0xbcabb9723de00567U, 0xbe039bc1bdcf8b58U, 0x3e5c38833de24dedU, 0xbdc93760bdf88e05U,
  0x3d0d8985bd08c32aU, 0xbe01fe35bd1b6352U, 0xbe0e255d3d64beaaU, 0xbc567c523e1dbb1aU,
  0xbdb1d8953e2de163U, 0x3d9287bb3d41c556U, 0x3e2837063dc80991U, 0xbe03dc98be41ec70U,
  0xbe9fad6d3d96eca1U, 0xbe9a24cdbeb872bbU, 0xbd6312f6bd00a5fbU, 0x3eac26013d6a5fa2U,
  0x3d19e412beb309aeU, 0x3e96ec0e3d644585U, 0x3d1506d3bd89c633U, 0xbe0327b6bdb0bf82U,
  0xbcd979aabe722cf7U, 0x3ebd5dcbbda9fb2eU, 0x3b581c93bd86eda2U, 0x3c0a8e7d3d801d59U,
  0xbcfb889bbd8d3aecU, 0x3dcb92df3c096394U, 0xbc0b7ae6bd9d2883U, 0x3e094b673d2b4b07U,
  0x3dd194b7bbd3906eU, 0x3df9b8633ebc70c7U, 0xbe2b6c3a3c469410U, 0x3d9fad0abe501b0fU,
  0xbd1325ba3d2ebb66U, 0x3ebc9369be477ba5U, 0xbe017bae3e49622bU, 0xbe45e833be3a1ccfU,
  0x3e093c95bd439572U, 0x3d790a56be68c20bU, 0xbe13a6623d16a76cU, 0xbeb6e3143e048f25U,
  0xbe10cefd3d10479eU, 0x3d90a89dbd315162U, 0xbcc697533d5355d4U, 0xbda166093d6ee417U,
  0xbd482fb9bdb3cf3dU, 0xbcb62befbcc3463fU, 0xbe32fac83e2ac7a5U, 0x3d0ceb90be83f794U,
  0xbdce98a5bcb2a73dU, 0xbe5c387b3e310c0fU, 0xbc86dd663da35161U, 0xbe6c2d5fbe3aed42U,
  0x3df24597bdebe876U, 0x3e05ca073e2c464bU, 0x3d06b549bde42af4U, 0xbe1a28273cd8ec41U,
  0xbe615a603d987baaU, 0x3cd3217a3d73f842U, 0xbe52e46fbca4c3b3U, 0xbd677eb9bd953b52U,
  0x3d99a09a3dce53abU, 0x3df7058abcc1ca25U, 0x3d8590213dfa4bf5U, 0x3d4d072ebd0ab0f1U,
  0xbe198a663e4a99c8U, 0xbb2e9067be83c148U, 0x3cd303113d0b494eU, 0xbe585391beaac5fdU,
  0xbd032257bbdac992U, 0xbdf06d963de70b65U, 0x3e2e85203ec5b7dbU, 0xbdcc10713e790a9dU,
  0xbd2f84f43e17bafdU, 0x3dcdc7cfbe4e5fe2U, 0x3e6b810a3e71a287U, 0x3d1caee93ca6e01eU,
  0xbb390e8f3de1eba4U, 0x3c521c493d4c9a81U, 0x3d541515bc9397b9U, 0x3c77fc4cbd8e7bc9U,
  0x3d91008a3b08024cU, 0xbd944c21bde08726U, 0xbd4485743dc9beadU, 0x3c5a562dbe975541U,
  0x3d99365d3ce5d89bU, 0xbbdfa6a03d1cb5beU, 0x3d8ed4ae3dd243daU, 0xbd8e760cbe60a5f0U,
  0xbe09fa8f3e9aed5dU, 0xbec46d37be68eaefU, 0x3d8433a2bd3a263fU, 0x3e520621be0302faU,
  0xbddbe0b73d4924c6U, 0xbe168d9dbc0dcb16U, 0x3d2c972cbd84776bU, 0xbc1d28b13ad41f09U,
  0x3d2649623dbdd24eU, 0x3d36eecbbd07befdU, 0x3d7536dd3ba8cbe0U, 0x3dbf50793d742c1aU,
  0x3dba28d73e5f8efcU, 0xbe552a4e3e8d6c5eU, 0x3ec44c093e1ec0dcU, 0xbe0bf1fe3df5e8fbU,
  0x3dffb271bdc68891U, 0x3db22ea2bcbdd94cU, 0xbe5381fb3dfe6102U, 0x3ccdb50b3dacbeb0U,
  0xbdebba583e15b583U, 0x3d7bdedd3dc719c2U, 0x3d0bd51f3e71c732U, 0xbe2e55423c595851U,
  0x3db037273e738ceeU, 0xbdf9fe92bd17600fU, 0xbd7157c8bc972862U, 0x3da79ffe3def89c5U,
  0x3e428e2f3e45fb51U, 0xbdf8d678be237b4eU, 0xbda743dd3c320ce8U, 0xbb2946503cee61b2U,
  0xbd832c2f3e29986eU, 0xbe1eb15fbea25fd4U, 0x3dd776833e388a98U, 0x3e69adec3e67a7f3U,
  0xbe8343f3bed2cb3aU, 0xbd0a85143de258d9U, 0x3df443793da37f48U, 0x3e0abd19be27f5deU,
  0x3e1725e63c9ee6cbU, 0xbe4b518abe04fa91U, 0x3c32c05e3b344079U, 0x3c7d4d2cbdbbd5f5U,
  0xbce3a73cbdfe2c5aU, 0xbc73ee42bd4d9d90U, 0x3d9f9760bb264ba6U, 0xbd9db14e3b8f754bU,
  0xbe8a9507be45a4eaU, 0x3eb507423e9f99caU, 0xbe4b9fc53c80127aU, 0x3e698f52bd49b8abU,
  0x3cc3198cbcf09264U, 0x3c41ec483d513ca3U, 0xbe1f6b233e904f2cU, 0x3e338bb03e688ebbU,
  0x3e9a20bdbd572b7aU, 0x3e64e15dbe837f9eU, 0xbe4dd52d3e0e173cU, 0xbd7feaef3e0be76eU,
  0x3bb933a43df71b80U, 0xbd0d8def3d1d1391U, 0x3d3c90133db6b208U, 0x3cb1e1673d8d1f23U,
  0xbd4ace753d65a3fcU, 0xbcffebc43c66600eU, 0xbe38e02abe3e1411U, 0xbd68a04abc1f83b9U,
  0xbcc3b6803e791cd8U, 0xbe99c1d1bd88ee3dU, 0xbd9ab6eb3cfad90aU, 0x3cf6aeca3d95646eU,
  0xbe8179d83e74b154U, 0xbe26e39dbe00eaf3U, 0x3e19f3f03e5bc631U, 0xbe0d4927be34cf3dU,
  0xbd2b2de53e7f395bU, 0xbe2f90c43e1444b8U, 0xbe3186bd3ccbb8cfU, 0xbe19930f3da1c7d6U,
  0x3d65b877bd8bfa35U, 0xbc36d1193e155c8fU, 0x3c8583f13d460ecbU, 0xbc77d0ab3d18fee9U,
  0x3e8822d13e3ac56eU, 0x3e1a11bbbd97aa48U, 0x3dda74a83da4790cU, 0xbe8edc9e3dbc71a6U,
  0xbe269fa0be157e9fU, 0x3e10d4f4bdd9c113U, 0xbe09054abea4a273U, 0xbe22ccb5be95285cU,
  0xbe2c943f3ce54a9aU, 0xbe09e8fa3e1b235aU, 0x3e1fa0e0be2b1cfeU, 0xbe3e34523d28f1caU,
  0xbdaccb0ebde59d65U, 0x3da484b93bc7253cU, 0xbd1f36093e34ee4fU, 0xbe15bfa2be0aea52U,
  0xbcb0f397bbf5b274U, 0xbe151790bcdc7bf4U, 0xbe87ebb93e368bfdU, 0xbde38fb4bf18ad39U,
  0x3e5e1b86bd2544d1U, 0x3ddbafc23d351ed6U, 0x3da84cc73db40f7dU, 0xbe7dc1c9be4143b6U,
  0xbd803172bf0363ceU, 0xbeee87473c65fd5eU, 0xbe1f9a91be74261cU, 0x3d6299173db12422U,
  0x3dab05053dbb18fcU, 0x3e322b0abe4c5a95U, 0xbe08e73fbdb9443bU, 0xbc7238fa3d62a716U,
  0x3c14d3d7bdd8d3f1U, 0x3cd77e0b3d5de65fU, 0xbbdd40053d81298cU, 0xbc3226d0bc1e3977U,
  0x3e29e2f63e7aee4eU, 0xbdd37b6ebe0ef610U, 0xbddfc6f53dc6928eU, 0xbe01a0bb3d09aa36U,
  0xbd6dbd8abdcd7975U, 0x3e4a8a6dbd9dbe7bU, 0x3ee97c773e1589c9U, 0x3d50cb3abe547b77U,
  0x3d2d754b3e486035U, 0x3cf54e243d52f2b9U, 0xbcf749de3d97dc90U, 0x3e5e12c2bdc83ac3U,
  0x3d543af73d5264c3U, 0x3e0236cfbd601876U, 0x3de5d7ccbd7ced8aU, 0xbcabf6443e07d6f5U,
  0xbde26e2bbdb3ea08U, 0xbcd8c99b3d1df6a1U, 0x3d8b6608be83ec7cU, 0xba7095e4be2d4d98U,
  0xbc9046afbe8bb8a7U, 0xbe2b13c6be19aca0U, 0x3dc50e5d3d74c237U, 0x3dd635903dbee485U,
  0xbdb0d8733dd85709U, 0x3db2720ebe8e93a7U, 0xbe881e8cbdf5d824U, 0xbe38204fbe1511cbU,
  0x3ea9fc2a3d8d90cdU, 0xbb56e372be1ddf84U, 0xbc28787dbd903c79U, 0x3dba66243c2c4fbaU,
  0xbd7c39693d144d36U, 0xbc25eef03d52e6f6U, 0xbbc75fd7bd66b423U, 0x3caa5905bd3112c0U,
  0xbd9aa4483df9632fU, 0x3d9786583d2150abU, 0xbc0382a2be9849ddU, 0x3e812f24be7b5364U,
  0xbe1d31bcbe1c021eU, 0x3ce8ff743e02c059U, 0x3e712d843e3f628eU, 0xbe2bd467be69e876U,
  0xbe075f753db4b724U, 0xbe4156d83d86535bU, 0x3c1502d1bd72cda6U, 0x3e317ae2be1c9c24U,
  0x3d802d17bbf90a60U, 0xbd7dda923e307d19U, 0xbd38fb893cbee6a1U, 0xbe0044543cefe3ccU,
  0xbd818f043d79b3a4U, 0x3db1c6383d74d259U, 0xbd1dbe4ebd8aeec6U, 0x3e305fed3ce3d19aU,
  0x3daafb783e443f5bU, 0xbc8b6f35be239b2cU, 0x3e02e4a13e5fbffdU, 0xbe13dd543deaf1b1U,
  0xbdf5caf83e734996U, 0x3e8c625b3e729e11U, 0xbe6a9e733d8c5381U, 0xbe0556453df5e6f8U,
  0xbe4537b53e9b7ee9U, 0xbe1823663c903ddeU, 0xbd59c5ff3d0b7715U, 0xbd6cd77ebd0a4120U,
  0x3db44ec83e1a7f56U, 0xbcd626273b818248U, 0xbd519f4dbc0e2a75U, 0x3cbdbf71bd0b2961U,
  0xbec4a6a03d0ee375U, 0x3dd5902abeb0da96U, 0x3e58c9f33db11d4eU, 0x3ed1eb56be320de2U,
  0xbd09cc163d90bd37U, 0xbe403b38bdc1aaa2U, 0x3df5acfc3e12d4efU, 0xbd0dad9a3ea8bb68U,
  0xbdf7ad193e32036fU, 0xbd9bb12fbe1197d9U, 0xbd96be9e3dbc733aU, 0xbc7390d7bd80e8ffU,
  0xbc86dea6bb2e69acU, 0x3e0b78dabdabef81U, 0x3d188a0a3cf5fe05U, 0xbcbf8d773d86f052U,
  0x3d89d0853d2c90ddU, 0x3c3c68503d622ee5U, 0xbf1e25383e2b1b7aU, 0x3ea6dfc7be861a49U,
  0x3f248153bd9d6432U, 0x3e1695e6bd7a8164U, 0x3e38759f3e4ac0e1U, 0xbeb2c2d23d2f31e1U,
  0xbe4d047dbe4107b7U, 0x3d45bc5e3ebd3982U, 0x3dad8bf73d83f723U, 0xbdc17779be1f051aU,
  0x3ca5fe093eaf8007U, 0x3e51d4a2be063f43U, 0xbce7bff33be8cb71U, 0x3c41dffabcb6c749U,
  0x3d96c1123b838751U, 0xbce19e6f3d9a9391U, 0x3beddc7c3d92bfafU, 0xbbab19fbbd02dfe4U,
  0x3ded2617bdfe2be0U, 0xbbf741483eed50aeU, 0x3ed18eb0be1c04a2U, 0xbebb5b503ee70334U,
  0x3b989d1b3c69c1d8U, 0x3d657a38bcefe398U, 0xbdfe794c3e157bc9U, 0x3e051c043dcc27c0U,
  0x3e51799fbca7d637U, 0xbe60550b3e58642cU, 0xbe8d5487bcfff684U, 0xbd81e1e6be56cff8U,
  0xbde4e71d3dafb746U, 0xbd7e3d9b3d401705U, 0xbcd3deacbd6153a6U, 0xbc35c8033cdf4423U,
  0xbd9fced63d436727U, 0x3d63bf27bd1fb280U, 0x3d87895a3eebab5eU, 0x3d5c222cbde632fdU,
  0xbc0aee7c3e086928U, 0xbda2f9593c92aa3bU, 0xbe403a80bdd54fe3U, 0x3dee87713c914e4dU,
  0x3e9a94fdbe0440f7U, 0xbdabc8cc3d38a3e1U, 0x3d0be6c7bd37d9a7U, 0xbbfcc3053e3a915fU,
  0xbe24bc513e9f6bffU, 0xbe85b76cbe2dfbb1U, 0x3e11b3243e195de4U, 0xbe3bf0afbd3c73e9U,
  0x3c90cf9c3dcfcb94U, 0xbdc20a88bdd7f2b9U, 0x3c87892ebd1f017dU, 0x3de1c232bd025f58U,
  0xbede10f43e95f007U, 0x3d614543bdc154f9U, 0x3f0003fa3dfafa7aU, 0x3d3a3a34be3fa882U,
  0x3cd248bf3e524281U, 0xba90f84fbc8dee36U, 0xbd17751ebeb5c873U, 0xbcd1b2993ea98d29U,
  0xbc25f791be52dc0aU, 0xbd90e3a0be9cd601U, 0xbd09f06a3e944627U, 0x3d0dbb90bdffbf33U,
  0xbdc0446b3cbda87dU, 0xbd7a4a52bd324b39U, 0xbd05eed33e18476bU, 0x3d04a9a8bd1eb70bU,
  0xbc93a6f53c9a8dd7U, 0xbd4230eabe296913U, 0xbf06a850bdd7810eU, 0x3e9ac065bdc1c4a9U,
  0xbca8eb1fbe4e74c9U, 0x3ef724083d3f4218U, 0xbdf8bab4bde791ecU, 0x3da7c6d7bdd9b68aU,
  0xbd975a643e36ecb4U, 0xbe6dfcd53eec1c06U, 0xbe3cceb83eabf4b7U, 0x3d6012b3be00c52fU,
  0x3e20923b3e0aa76eU, 0xbd8d27153d5bb1edU, 0xbd440291bd7c2495U, 0x3d6169db3d4ef86cU,
  0xbd1885613d531b8bU, 0xbd84e9ac3e23d515U, 0xbd99ef5f3dc39730U, 0xbd055e18bd5edc1aU,
  0x3d62e5063e7c0c83U, 0xbc05f756bdf4be56U, 0xbd00c0f5bd9e4f8cU, 0xbed875803d67877aU,
  0xbd85a0ebbd2bb465U, 0xbe20db573e520c43U, 0x3f02c8a43d1b882bU, 0x3e7ccb2b3e48f7c2U,
  0x3e1fb0853db7f84fU, 0x3da5b17abd106151U, 0x3eab4938be084961U, 0x3e53d04a3e0ff958U,
  0xbe15a02dbd3433aaU, 0xbe6a79513daf1f79U, 0xbd8a7361bd87a766U, 0x3dae8f323d885694U,
  0x3dbcce9bbd524c47U, 0xbdea05bd3c174b5eU, 0x3e44b7303e52faafU, 0xbcb26d4b3d1c7b40U,
  0xbe99a8aa3d1c34a8U, 0xbd6a13abbdb6903eU, 0x3d5cdb803e2ff17cU, 0x3ebf62f13d96542cU,
  0x3e9de2fabe06d783U, 0x3c296afe3e4b819eU, 0x3e3fcc553e9b710cU, 0xbe1028153d77386dU,
  0x3dc4d0b73ebe5817U, 0x3d88af223e2bbe46U, 0x3e3a86943d584dabU, 0x3d316c9dbd7429feU,
  0xbcc1e356bdc12f59U, 0x399d1c61be257c6cU, 0x3ba8b9e9bd8cb170U, 0x3d64a445bcb1c1b7U,
  0xbe6d9cadbdfa1a32U, 0x3e052304be866896U, 0x3e41a69bbd93b18aU, 0xbee585db3e79f93eU,
  0xbd056159be0f7182U, 0xbe55ad983c9e3e23U, 0x3cb51accbdc58d57U, 0x3eaa20fabe72cf1cU,
  0x3d3e65cdbd3f996cU, 0x3bfac8c4be278a8aU, 0x3b390ab1be20530eU, 0x3e50c5dbbe16d34fU,
  0x3e26a453bd2e04d7U, 0x3cced40a3d24510fU, 0x3e15cba13d9f04c3U, 0xbde333213d1b9591U,
  0xbdc904bdbd7826bcU, 0xbc568714bc0d38dbU, 0xbd5f4d883c9b2ad7U, 0xbd36021fbeaa8c49U,
  0xbd20f79dbdbf32faU, 0xbe4f9df63dbc23efU, 0xbd8eef1d3de340feU, 0x3e0fb081bde21f97U,
  0xbe884aabbdc16521U, 0x3eafe0693d9da80eU, 0x3d7cffccbe55f0d5U, 0x3cbf86d13a36c7a9U,
  0xbe5be0133c807dfaU, 0xbe0c4fc63e698600U, 0x3d9353bdbe1c7bebU, 0x3bca61413c027d47U,
  0xbd9e6aca3dae6afaU, 0x3b9a3747bdea9b85U, 0xbccf65613e0c767bU, 0x3d514e753d83af5cU,
  0xbec9ba95bd83f7e0U, 0x3e61dd303e6ee3d3U, 0x3e26b3063d61ebd6U, 0x3e93bd74be254848U,
  0xbd2054ad3b132b75U, 0xbf01a6f1bdc26621U, 0xbe8ca9b53d9801feU, 0x3d520852beb4fc79U,
  0xbdfbc915bd8e4b5eU, 0x3e2597cf3ed8b5abU, 0xbd816824be8336ecU, 0xbc8ee2d23ca3ca50U,
  0xbd36c2bb3e2e03b9U, 0x3d99ade63d9c5d89U, 0x3dcd4eb63c816a61U, 0x3cd63af0bd81ec2cU,
  0x3d2e0fa6bca1d3aaU, 0xbc16e2ff3d9d2877U, 0xbe533e1cbd0428f3U, 0xbdc2474dbd5a6a95U,
  0x3ef6c474be2b7837U, 0xbf0718273e941a0bU, 0x3c39e7663d074bbdU, 0xbe09141cbe67d7b3U,
  0xbdeca5593d921b7fU, 0xbc28046e3e1302abU, 0x3e86ba8c3e09bc8cU, 0xbe76749b3e5299eaU,
  0xbe1c455d3d0fbd16U, 0x3d9427dc3d77ff0fU, 0xbd946fabbb8759cfU, 0x3e23ba643d5ff1e9U,
  0x3dc399813dca3b4bU, 0x3d2d25e93cb7d4b0U, 0xbd6c2f5dbc33604aU, 0x3dbb4325bd7c1fadU,
  0x3e5cd3c8be926381U, 0xbb79f2d93ecbe526U, 0x3de42e2f3e3e6716U, 0x3e4ff4f23ea09902U,
  0xbdbac155bd88537bU, 0x3e4155adbc4df30eU, 0x3e4e57713e9baa49U, 0xbded861d3dc73a10U,
  0x3dc54289be44ef82U, 0xbd668260be16f9ddU, 0xbe3c28b53e3d9709U, 0xbe92f021bcb3c08aU,
  0x3dbcd1e5be03e3c3U, 0x3ea3c4cfbe1db499U, 0xbd46b1623ddbc1abU, 0x3d9579fd3cee58bdU,
  0x3db68f1f3d694239U, 0xbdb495b43e0f3f3eU, 0x3e11851c3e5a96f2U, 0x3e02305dbe7552d4U,
  0xbe24d19fbe0775b1U, 0xbe1fc6d73d7918eaU, 0xbe2d9266bd3eed6dU, 0x3ea7f410bd18d8a2U,
  0xbde6a8e8be844b09U, 0xbed087e1bc8e42f5U, 0xbd3705e8be29b8b6U, 0xbe2b9b933dd0c0a2U,
  0xbe0b02d6bdfbc5d5U, 0xbe2fe2c6be070114U, 0xbc4d00c1bcabc0e6U, 0x3da1be2f3de468fcU,
  0x3d7ff99a3dab9c3aU, 0x3d56fa053da98d37U, 0x3d47b207bd98f816U, 0xbdda90023d9f4cb2U,
  0xbdb5d8603d2e0ac0U, 0x3c2eb4a1bdf240f3U, 0xbcf20a1c3cf9c20bU, 0xbdf130323d0b4234U,
  0x3df47962bda20888U, 0x3d815723be8c53ecU, 0x3e2eb55e3e89295fU, 0xbe742f703d33e7caU,
  0xbcd31def3ce7391fU, 0x3dfa1c11be263e52U, 0xbc014efb3e242460U, 0x3ddb904cbe9c6bb4U,
  0x3e919c523dd4f45eU, 0xbe1711223d1dbb94U, 0x3e16ff783de953baU, 0x3c5f63543dcdcda0U,
  0xbd5e0395bdfa8ddcU, 0xbe18e4e23d74dfa3U, 0xbe1589ee3d9fcddbU, 0x3d23b177bd174e87U,
  0xbdcaf382be802696U, 0x3e72de033de030b0U, 0xbc0da16c3c66d87dU, 0xbe49fe3a3e229addU,
  0x3e037c10be9bd0edU, 0xbe390c80beaaa7d4U, 0xbe277a0c3ce2e824U, 0x3d8cd4a9be652441U,
  0x3df2b8afbe7b5453U, 0x3dd8c44e3e043b11U, 0xbd89506ebd750dcbU, 0x3ddba07c3dcc2b37U,
  0x3c74b71a3d852d21U, 0x3e050a353b76096fU, 0xbda9c7053ce5dfb7U, 0x3ce8fc66bdb2939eU,
  0x3e1c3bee3e01bb5dU, 0x3dd40396be84f204U, 0x3e157df6bd069b3fU, 0xbe8c88393e99435eU,
  0x3de7e7263e0e53cdU, 0x3e9d74debe2c35bfU, 0x3deb9388bc1d9c70U, 0xbea3f9eebd9899caU,
  0x3dda5cdebc694b52U, 0xbdbfea9fbc87f0edU, 0xbc719aa33dd124f1U, 0xbe4b5022bda83d87U,
  0xbd5e0ab8bda379a6U, 0x3d878d1abd131929U, 0x3c048fb3bc7f0956U, 0xbccecf093d65d63bU,
  0x3dca50b4bd2b1e08U, 0x3b319fd03db36c43U, 0x3e17e2a5be6e1138U, 0x3d5a0d3ebcfeae7eU,
  0x3dbf1037b9c3496aU, 0xbe6f70a7bdd51d6fU, 0x3e09f33b3e385485U, 0x3e8cb642bccf7732U,
  0xbe0efbe0bd592416U, 0x3e4563f7be6d552cU, 0x3e12cb1ebd52b921U, 0xbceed2b7bdb17f2aU,
  0x3e7cb66fbeca5e04U, 0xbde86859bbfa3eedU, 0x3d2dea3a3c3aa534U, 0xbd30ce39bccad1b7U,
  0xbcd8f3b53d29bb1fU, 0x3c69ab023d30572bU, 0x3db1d285bd07396eU, 0x3dbca95fbd2a6d43U,
  0xbe05bc1d3e901e88U, 0xbd11f80cbe14b86dU, 0xbbf215cebc4b6ed9U, 0x3e8a5937be3bcdceU,
  0xbe3b5a5bbe4eec5aU, 0xbe1de0b3be07ecf3U, 0xbdcc4739be4675a7U, 0xbec685a73ec8aa25U,
  0xbdd08c33bb0fbfe4U, 0xba4ed8993b242805U, 0x3d23d6213d29a7daU, 0x3d75ac24bc99da94U,
  0x3e71e5c7bd775f6fU, 0xbde0a0983e8fc629U, 0x3db4facebd0e3e10U, 0x3c8a9edabde4f6f8U,
  0x3e0a12dfbd310ae7U, 0xbc106f59be1288bfU, 0xbe365b5e3de02941U, 0x3dcede153be9f193U,
  0xbeaed4a63e5222bfU, 0x3c86512e3c8e66c7U, 0xbdcf61063d435fb3U, 0x3e44028a3db7723aU,
  0xbee0a6afbe4ddf81U, 0xbd8bb8523e4bf883U, 0x3d95ea823e135397U, 0xbd287fb73d8d6fa5U,
  0xbe474f15bd7ccfbaU, 0xbdc48fe8bda96e11U, 0x3d81cef43bfe6d7dU, 0x3cea181bbb6c7548U,
  0xbd26bc243d27eb93U, 0x3d26249a3d59940bU, 0x3d450553bdf0665cU, 0x3e3cc9bc3dccc705U,
  0x3e35c3e6be011ce3U, 0x3e2694063f25a554U, 0xbe8105703e32ffcbU, 0x3ef7c04c3edc8c4dU,
  0xbd4c1c1cbca8bbf6U, 0x3eb1200c3deebc95U, 0x3dfccffb3e13f27aU, 0xbe1d5455be3f735eU,
  0x3dd65cc7be038cafU, 0xbdde572a3dc3195bU, 0xbea5ec88bd806df8U, 0xbe07cd55be7071a1U,
  0x3d83c254bda62c8aU, 0xbc5b0fa8bdbbf8ffU, 0x3e03a6663d7e51a3U, 0xbcdc209bbc2cee0bU,
  0x3d7e3f2bbd191bcaU, 0xbd53c426bd5de706U, 0xbc9bc833be409966U, 0xbd2021bebdb01d8eU,
  0x3de70d553e5862dbU, 0xbec03549bdb08370U, 0x3d5bfba63e2c58d9U, 0xbe8f16993e463f17U,
  0x3e45c6a9bc85b3a6U, 0x3edb049cbe4c999cU, 0xbde0216a3d9ceef5U, 0xbdc36821bd5c5a90U,
  0x3c1845cc3cc6e37bU, 0x3c1e440b3e9473faU, 0xbd8e7957bd69975cU, 0x3d3fc4d4bd831cebU,
  0x3d952e633ce883ccU, 0x3dffc110bd862613U, 0xbca2de9cbdd03892U, 0xbdd64269bdbc9080U,
  0xbc824471be89d591U, 0x3e1da6d63e296d21U, 0xbdd518b63bff174cU, 0x3eefc38c3e0fd11eU,
  0x3dc445bf3d1a352bU, 0x3ee332a63dd5e590U, 0x3e4177023ece1e95U, 0x3c24bce43c9729cbU,
  0x3e0c40c4bd39fa71U, 0x3de7d6103d9c2e27U, 0x3e3add033d988dadU, 0xbdef18103e1abf05U,
  0xbe536e30bb1119a8U, 0xbd241f5a3d527278U, 0x3cf2c1e63dacfd87U, 0x3d294065bc82333bU,
  0x3d7be9dbbc16685aU, 0x3b77a6a43dbeb659U, 0x3c3dbeac3e1bc51dU, 0x3d00ddf1be67a204U,
  0xbdc6ed3c3dc72670U, 0xbde860b83d218717U, 0x3d57532a3e0605e5U, 0x3e798598be6d887aU,
  0x3d2b57c13ca5bf94U, 0xbed59c53beacc670U, 0xbe7af5283eafa15eU, 0xbea72c6c3ea386d2U,
  0x3a0b2e0f3e07decfU, 0x3e161d65bc2d9c95U, 0xbd19732b3d22eae5U, 0xbcd05a1f3a7fa409U,
  0x3d39fb903da63bdcU, 0xbc98b9883d6ea951U, 0x3d0d1c19bd47ff2fU, 0xbd8227923cf91c84U,
  0xbef0f430be038331U, 0x3e1323d13e3863a4U, 0x3d63b46f3d2e3a68U, 0x3f050f77be917473U,
  0xbd8b37353d11c086U, 0xbee701653df183afU, 0xbec7dbccbe0f273fU, 0x3d78a9363ecf4362U,
  0x3e514e17bdfbfcf3U, 0x3c1d755cbbc13be1U, 0xbdc3e2e73ded365aU, 0xbdc5ab623d6199baU,
  0xbc984496bd8dc941U, 0x3d6ac4f93e0d4f2eU, 0x3e11521ebe2502deU, 0x3c2b5e223db47599U,
  0xbd3604f5bcac928dU, 0x3e37addc3da3b285U, 0xbe09abc5be4a261bU, 0x3baee938be832928U,
  0xbe7b8eacbe3a3f88U, 0x3ea787a03d0a2fb1U, 0x3d06d9653d38cc77U, 0x3e02aa78bc769cf9U,
  0xbcd4d4913dd44e2dU, 0x3ddaa0e83e9df078U, 0xbe8df7d0bdd5d745U, 0xbd82914f3e189a5eU,
  0x3e1a31453eb203a1U, 0xbe2ee5f93e5e48a3U, 0x3d1815febd5f772fU, 0x3d860a813cb484b8U,
  0xbdafcc20bce4b431U, 0xbd489ef0bce936fbU, 0xbd0029efbc258c81U, 0xbcb239a6bc43a426U,
  0x3e0f64413e48f886U, 0x3d6ef5eb3e55bfabU, 0xbe950c543e9173fdU, 0xbe688e8d3e59d448U,
  0xbdc478043e1506c0U, 0xbe2cd3913ed95bc6U, 0x3da545aa3cce4d01U, 0xbe0613353e124eacU,
  0xbcfa919a3e64a07dU, 0xbd64c007bdd833d4U, 0x3abce86e3c8f47a3U, 0x3af01771bd5fdde5U,
  0x3e7d04ea3da66078U, 0x3ba132533c92eebdU, 0x3cd80158bd87b99fU, 0xbc82ff4b3c5601caU,
  0xbd5b91e1bc884919U, 0xbccb70fbbddc573eU, 0x3d8e6f423c406f25U, 0xbd28b36b3e71fc39U,
  0x3dde798f3d8d46f7U, 0x3e8514543e521990U, 0xbdc3901a3e0d3452U, 0xbe3ed4ebbeaacec6U,
  0x3d69cfa5bb90d9c8U, 0x3d3cec5d3e5b2048U, 0xbd3d30f6be2d3429U, 0x3d883a3d3daea92eU,
  0xbe6801c0bd915cd1U, 0x3ac7dfd0bdf47fb4U, 0xbdab8ffa3d5d1749U, 0xbc96101a3d5a4161U,
  0x3c8d985f3dc16d5dU, 0x3c68e31f3ddcfc20U, 0xbd8070a03ca51215U, 0xbdbdb106bd7a579eU,
  0xbe3181753e8c9076U, 0xbe0744503caf6405U, 0xbd2d1dd6bc0a0e52U, 0x3dcbf521bef2d952U,
  0xbdd4e554bde20f52U, 0x3eb7553bbd0cfb30U, 0x3e12f0d4be53bcd8U, 0xbe1d48553dabd63cU,
  0x3e4bfb913e1b0f3dU, 0xbd2e46d7be1d6253U, 0x3e187087bd341c2fU, 0xbcdf357f3d955483U,
  0xbe06fdc0bdae3e27U, 0xbd5462fabdc9c284U, 0x3d377fddbd8c5066U, 0xbc8c3d92bd913054U,
  0x3bbf3dd2bd85d5e2U, 0x3dc3a6b83d7493b6U, 0xbd6dfcadbdd46b1cU, 0xbdc4fa2ebe6fcf56U,
  0x3e9b84483dfbf6e5U, 0xbd38996e3df9358aU, 0xbde56283be225defU, 0xbe4f2e6a3e671ca6U,
  0xbe0b7538b8893ccaU, 0x3ecf02d73e9ca98bU, 0xbe016adebdff8e74U, 0xbdafa241bd46c7a6U,
  0x3d84b7e9bd1564f7U, 0x3d8d8fb63e37456aU, 0xbddd2e7bbdda9b45U, 0x3d96b377be0a6bf4U,
  0x3d592d18bdcb0e69U, 0xbbea35cfbd91b7b7U, 0x3d1b553c3d87d6e1U, 0x3b5fbd6b3d2c0ec7U,
  0xbe964cecbdc794dbU, 0x3dd3357abe6b141dU, 0x3edbfcb43e39894dU, 0xbbf3cde7be96f3c5U,
  0xbda6fa893e1ed197U, 0xbef1ce93bd01665cU, 0x3ce4413ebe899c42U, 0x3e98be723dab3cb1U,
  0xbe37dbb0be08f8fdU, 0x3e5fd06f3e388dcbU, 0x3d408459be23ce05U, 0x3d78850cbd2b384bU,
  0xbd421907bc37d734U, 0xbca062623d5b790eU, 0x3d83b403bd9f1629U, 0x3de484b1bd34a568U,
  0x3dc45ff8bcb00ea4U, 0xbe1f316dbdd76a19U, 0xbd8d112d3e09c739U, 0xbe53a2ab3ea4bf1fU,
  0xbe8e83de3c8c194bU, 0x3eb89bc43e472c44U, 0x3dc682b53b8fbf42U, 0x3d152b1abc8a2c25U,
  0x3e7bd536bd1c5cfbU, 0x3e6e1729bbfeeb12U, 0xbcabf9a8bc18ba9eU, 0x3e0195a33cb115b8U,
  0x3d980b67bc599992U, 0x3dd4aeeebd8f64dfU, 0xbccd694f3d19ad34U, 0xbcb43651bc7e553dU,
  0x3d8583723a985fdaU, 0xbe08b8273cb1fc98U, 0xbd89858d3d940637U, 0x3d805fc73d9db4dcU,
  0x3e40cd503e9b3f03U, 0x3e275958bdade66aU, 0x3d85bf5bbdc28454U, 0x3c12fb41be425aeeU,
  0x3c43c7453da2690eU, 0x3e5645b4be459ffeU, 0x3e09d3933d67952dU, 0xbebb8eb23ecf20b5U,
  0xbdffaf9f3dcc4852U, 0xbdc2e3103ddccddbU, 0xbe92d4b43ecebda7U, 0xbe01272c3e854372U,
  0xbd41aaba3e057b51U, 0xbbe0db2cbd11d9e8U, 0x3d7409743d067d18U, 0xbd26dabfbcd954aeU,
  0x3da479e73da02a79U, 0x3c415415bda08f59U, 0xbe0c7dc53df70321U, 0xbbaf5bbe3dbfecacU,
  0x3bd1228cbc0c4aa1U, 0xbda7215bbe0cfa09U, 0xbe21c938bda75000U, 0xbe588dea3d4f91cfU,
  0xbdc5092ebd9b2896U, 0x3ebb5d3b3e862ea9U, 0xbdf72446bdafc498U, 0x3db9011e3e137c9bU,
  0xbe900475bd66086bU, 0x3e8c6e373d964869U, 0xbddf5a68be4edfb6U, 0xbd27bf31bcabc296U,
  0x3d213f1b3b6fa0eaU, 0xbe1d80b63e167d74U, 0xbdea55ca3d53db6bU, 0xbd0a6ce63d3bc8dfU,
  0xbd107cb4bd6d2b2cU, 0x3c160b95bd82f886U, 0x3e4d4c903b965e92U, 0x3d37de653e76f77aU,
  0x3d997c98bc901e05U, 0xbcbb2cddbcd9dc83U, 0xbe8b50203e6d357fU, 0x3e2045d13ee9ae8aU,
  0x3e4aaadabe1c954bU, 0x3e43ae1cbd3c11bbU, 0x3dedc1c1be651f4fU, 0xbd4659203e4b2ad3U,
  0xbd37bb03be25cbd5U, 0x3e206e3ebde4df73U, 0xbcd72a163c522e8bU, 0xbc1f0ece3d816518U,
  0xbdde0460bcbc9739U, 0xbdca6871bd030fe7U, 0xbd9789103cc849fcU, 0x3dae36f7bec180f8U,
  0x3e2dad2a3d7a25a7U, 0xbd60d1803b9dd8b2U, 0xbd8b73eabe400c22U, 0x37aa7aaebe3e1791U,
  0xbd3e007abe81f0ddU, 0x3ecd49153e77afefU, 0xbe4f2a91bde146ffU, 0x3e148da83c7e0da2U,
  0x3c4793823e824ca2U, 0xbe0478543e6f3c14U, 0xbe106a583df9d444U, 0x3e7df269bd85e520U,
  0x3dd1a9a33d492f20U, 0x3d36e375bd1045b3U, 0x3d6f9b2e3d982fd8U, 0xbdd26c223da10f88U,
  0x3e32ee0abcb385cbU, 0xbda0a8123da44eb6U, 0xbdadd54c3deaebe0U, 0x3d6b7eabbe4a8fbeU,
  0xbe1dea4abe15de93U, 0x3db8e19f3c8ca039U, 0x3dde85253e47b147U, 0xbe0d5ae1be39500bU,
  0xbe44731a3e6f9407U, 0x3e0217283dbf22e7U, 0xbd2c70fa3e504b36U, 0xbddf01fbba7d6783U,
  0xbd65e71d3e6754bfU, 0xbdf5b5ccbd4cf3fbU, 0x3d4d3dba3e0b6e43U, 0x3dfb1e0b3e1d2075U,
  0xbd42da9bbe1598bdU, 0x3d9e7458bdd8e1acU, 0x3e1bbf353d0ded53U, 0x3c152aa5bdd928e4U,
  0xbb163f6bbe81bb8aU, 0xbd79c3d03a219804U, 0x3de3dab6bddb87daU, 0x3eb5f7d9bdd61d85U,
  0x3e80878b3ea01de9U, 0x3e334c373e28ef34U, 0xbda3114d3e35dd97U, 0xbdd416c93e1f249bU,
  0x3e1f56dcbe1f9aacU, 0x3db33dde3db518aaU, 0x3cf576d8be54cf20U, 0xbd21797a3d7ea0abU,
  0x3c9afa553d6b07b8U, 0xbda7d25dbd99115eU, 0xbd665fafbd9721a3U, 0x3e1564653dd3807bU,
  0x3c874c09bd96c08aU, 0x3dfe2d8ebec296b1U, 0xbe0008a6bd1e702bU, 0x3e87b0e5bc72312bU,
  0x3c124c5a3d40b6e5U, 0x3e9eb91a3e04d16cU, 0xbe34734e3e1d6f3cU, 0x3e3d30c63df44d39U,
  0xbc829744be37ce07U, 0xbca86c2ebe529550U, 0x3e63ed64bd317560U, 0xbe051632bcc03330U,
  0x3d694eea3d98a636U, 0xbd2a842d3a9b1559U, 0xbd30de343e223eabU, 0x3d9812ac3d179400U,
  0xbcf446063dc2e27eU, 0x3d87dd0ebd8eedb1U, 0xbd7f81b33e90e339U, 0xbda32cc5be1f99fcU,
  0xbc858f8c3be46e17U, 0xbc0a76b83df4475aU, 0xbe373749be1ba9e8U, 0xbdaa2c0abeb598afU,
  0xbeb57990be1686e5U, 0xbe9b6d703da5d574U, 0xbd72069dbe236bb0U, 0xbe23dafebd65ce15U,
  0xbdf149613d8b8fa9U, 0xbdf4afc83cff80bbU, 0xbe94a9e93d0255d5U, 0x3d1453183dae5238U,
  0xbe2e3dad3ca050e4U, 0x3db3230dbe09f25eU, 0x3cd66ed03d2b21a2U, 0x3dc0213b3dcaa320U,
  0xbd936dad3e5eccc5U, 0x3c8c7af73e684373U, 0xbd7634f5bd9a7863U, 0x3e2c8b21bd9c062aU,
  0x3ca79ca1bd51cc76U, 0xbd88b7483e120850U, 0xbdfaf19a3e152b2aU, 0xbeae72d83e170147U,
  0x3e28d8fdbdf52c26U, 0xbdc769673e12efd6U, 0xbc8c4c1e3e0c2259U, 0x3e4a77a4be2934d3U,
  0xbdfbb8e73db07fceU, 0xbcdbf1243d817decU, 0x3c13654d3d409165U, 0x3dea1ead3e3faa6eU,
  0xbc77a1203d68db90U, 0xbc85737bbd166ceeU, 0xbefcc7a53d83f8a6U, 0x3d9a94fb3e9ec804U,
  0x3f085a06bcaacde6U, 0x3ebb072b3df69648U, 0xbb86878bbd63d930U, 0xbeec4c5dbd20dbe6U,
  0xbdce30743dcd1247U, 0x3c820291bd8c7f3fU, 0x3d5f2b003d6c5348U, 0x3d5c28173e527a15U,
  0xbe537da03d1e294eU, 0x3e1924483d1ff798U, 0xbd374633be26304aU, 0xbd564192bce5bbf1U,
  0xbdedccc8be0f80c7U, 0x3d37e916bcc9e970U, 0x3d0a0cdfbc780da5U, 0x3cec89fc3e2cb9fcU,
  0xbd18a5cbbd7c9291U, 0xbd85e278be277224U, 0x3dc951043e6a2595U, 0xbd6e7a9cbe38f7ceU,
  0x3974d13bbe39a4f3U, 0x3e0309093def6fd3U, 0xbe9559393d9e2526U, 0x3e7a1dd6bdb9d3dcU,
  0xbde57107be066854U, 0x3dcf477b3dcb007aU, 0xbe5cca5d3dfcb7c2U, 0x3d2fe72a3d9cffa5U,
  0x3e21275c3dd50393U, 0x3d048c0fbdf807a2U, 0x3dc5573bbdb6fb5eU, 0x3d9c6ee63d05ee29U,
  0x3d9a2ac7bc97d0d9U, 0x3d033af7be29db9dU, 0xbdf68d433dfb1a36U, 0x3c2874833ea6cedbU,
  0xbe01b0f13d1e25f6U, 0xbdae6cfd3e191c3eU, 0x3e1f533e3e0ff574U, 0xbc909106be09f8f9U,
  0x3e0a9d963e01f01aU, 0x3e976181bd9c59b8U, 0x3cb3e503be691434U, 0x3e77a04a3e2e8106U,
  0xbde69ca5be34f1beU, 0x3df85cabbe8e4d4aU, 0xbd95b7213cf11019U, 0x3da8110dbc66a453U,
  0x3da081f93d8a302fU, 0x3d79f48d3cf5e189U, 0xbd8c62f13d2f98f6U, 0xbaa8a050bbdf1123U,
  0xbe1ba0123e28c2a0U, 0x3e22ed54bd8015e3U, 0x3eea4c57be8369cbU, 0x3bd2a9243ded831aU,
  0xbde21b7b3d2f2a41U, 0xbda84a76be67f3a2U, 0xbe6371de3de4de77U, 0xbdb4ef3e3e290423U,
  0xbe86c5743e9cc201U, 0xbe44b460bd9d2496U, 0xbdcdc4a73e00935fU, 0x3d807075bd9ad41cU,
  0x3d32597e3daa50d6U, 0xbdd49b5d3d077597U, 0x3dd0c485bdc85cc1U, 0x3ddfd1d83da7549cU,
  0x3e0c03613d3af096U, 0xbba308babe2ac44bU, 0xbdcaa0c3be09fb8dU, 0xbe6c2fd8bdd39ffcU,
  0x3e05c9413d9f37dfU, 0x3f0b3236be052bc3U, 0x3da4a0d93c982bebU, 0x3df439ffbe1476daU,
  0x3e3b8c7d3e513cf7U, 0x3d4fa96c3e24bdc0U, 0xbde043e93ca9bb7aU, 0x3dbe66c1bcd6a63bU,
  0xbcd8c716bdaa5359U, 0x3dbf288e3e2061c6U, 0xbdaa82d5bdcd8f0aU, 0x3de8a1fbbd0e7dadU,
  0x3dcd59e03dc5cf22U, 0xbcec9ba6bd84db0cU, 0xbd1698e4bde73e6eU, 0xbddda6a73d7bfae0U,
  0xbf0fb8893e81b01cU, 0x3e287fab3ec9751fU, 0x3d45f050bce3c3fcU, 0x3f31d5883d58a02eU,
  0xbd3e5bb9bd8c154cU, 0xbe96ad493d5fa974U, 0x3d9f3e02be647e34U, 0xbdd8e59b3bc6bfe0U,
  0xbdd66f14be4da63fU, 0x3df6dceb3df79736U, 0x3cbe735abdc06c82U, 0xbdc76936bcac2f61U,
  0x3df4c1fa3da6c4a3U, 0xbd8023c73c4d7fd6U, 0xbd6ac3863cac5391U, 0xbda248ffbc83114bU,
  0xbd100ec2be5914d0U, 0x3e09c426bd0762d3U, 0x3cf1ea1a3d909735U, 0x3dd3bb9fbcf4f5bfU,
  0x3e32057e3e173e2bU, 0xbe1ceb8a3dcf212fU, 0x3d9393a5bdcb0b92U, 0xbc931e673e4d1751U,
  0xbd66092fbce335d8U, 0x3ebd0a093ed19c21U, 0x3e3f42e53d7ba87dU, 0x3e1a2c7fbd6a774aU,
  0x3d857ecb3d105d8dU, 0xbdf45d8bbcababf2U, 0x3d4fd3313d170932U, 0xbe09170abda80cb7U,
  0x3d8def393d0fdd46U, 0x3d8edda2bdbc69afU, 0x3d90ad86bda48924U, 0xbe13a82bbe49cfe8U,
  0x3dfd3c0e3dc8b651U, 0x3d68d8373e9be95dU, 0xbdbef1ec3e051649U, 0xbd5736813dd6e0bdU,
  0xbe471b9cbe0c70e5U, 0x3cf44bfc3e262a1fU, 0xbe2b8043bea61db3U, 0x3e72996b3e2c819aU,
  0xbe781965bd446497U, 0xbe976b7a3e71f38cU, 0xbe1792f1bd1e8068U, 0x3d3f78293c2bb51dU,
  0xbde19c153da3bee6U, 0xbd6dd7df3e1359e3U, 0xbc0300523db56515U, 0x3da318fd3cc59f32U,
  0xbe28322a3cbc3ad6U, 0xbd043b713dea478cU, 0xbe446d233dc7fb47U, 0x3d8381ee3ee02c07U,
  0x3da60419bdc8948aU, 0xbe04b5b7bd39ee11U, 0x3e03e7d43e1adba8U, 0x3db5e8d33dac5768U,
  0xbcc5aa093cba47ceU, 0x3ea7bff5bdd5c754U, 0x3e1e0e62be0cf799U, 0x3d82fa40bea18cd4U,
  0x3e3090a5be3bc074U, 0x3d3675bfbd77d1dfU, 0xbe3da11d3c13042dU, 0xbd4870d6bd9fb175U,
  0xbc1949053dae09eeU, 0x3dd9d050bc42fc29U, 0xbd57dcac3b9c20c6U, 0x3d423958bc9681e4U,
  0xbec09e673e989b35U, 0x3e97c291bda1d439U, 0x3ef5bab43de14065U, 0x3ece01abbe3bbdf4U,
  0xbc9a9c393d98aaa4U, 0xbecfc006bd21688aU, 0x3e5b5340be0d7a5dU, 0xbe9389a1be9bd776U,
  0xbda85f963e31ca91U, 0xbd35f438bcaa9006U, 0x3d653332bc38bfc9U, 0xb9b8d147bbeaebbcU,
  0xbd98724b3cca96a1U, 0x3cd512e03c5aed30U, 0x3ce8c083bd1290deU, 0x3d36451dbddd42aaU,
  0x3d872cf4bd185d8cU, 0x3b9b378d3d62c46bU, 0xbda68b0f3e4b208bU, 0x3de404293e3e6e85U,
  0x3e840caebe84c23aU, 0xbddd2e773d093959U, 0x3e26774d3e1aaecdU, 0xbe6b5d933da08a41U,
  0x3ec60340be92d7abU, 0xbe95ed85bc202643U, 0xbe0c01b2be75d892U, 0x3bc92dc3bd998ab6U,
  0x3d9cffc53e5a675cU, 0xbdacadc53d21581eU, 0x3d9518563cbc42fdU, 0x3d7e856ebe357d0fU,
  0x3d866cf93cfdd085U, 0xbd22d058bd3d9825U, 0x3d01acdfbccd9bdbU, 0x3bc7283ebcc26962U,
  0x3e72aef53e044f1fU, 0xbe512e4ebe48f7e4U, 0xbef2fe94be0f9ff8U, 0xbde41464bd91c2cdU,
  0xbd83a86c3d8b4ab9U, 0x3dad7f923e61ceadU, 0xbe90f63bbef2ab00U, 0xbea73a44bd7fbda3U,
  0x3d3992d1bea2963aU, 0x3de5f0ebbe6f3554U, 0x3cde80583d6b2aa4U, 0xbe304b5fbe585f7aU,
  0x3d0dbac23d986ddcU, 0x3d7250a4bcc10ab9U, 0xbd9415333c3a0d67U, 0xbde2a37a3d10cf31U,
  0x3d966632bd3e6a69U, 0xbd751c15b981c156U, 0xbf1584ea3e8b52e9U, 0x3e5bf57abe031b3eU,
  0x3ef31a3a3de38238U, 0x3e89129ebe7a731cU, 0xbdf51299bd5c3b5fU, 0xbe41c0563a36ae55U,
  0x3d1bd025bea943a6U, 0x3e880f4f3edac77bU, 0x3e1f83fdbd6e8a21U, 0xbcc588f2be98f2c4U,
  0x3dd6921e3e064077U, 0xbdb9c43e3df8e434U, 0xbe2df9743ddf3f92U, 0x3cc438acbd519b9fU,
  0xbd8c1e47bd3c769aU, 0x3e05f921bd519208U, 0x3c8805373d2ab2caU, 0xbc6eafc2bd3ff9a9U,
  0xbdb2ec4abe6cdd30U, 0x3cf02425beee0647U, 0xbdca8edebe08dbf1U, 0x3d406381be0c374cU,
  0xbdbdc809bdae7a8eU, 0xbe6fa0653e53c061U, 0x3e2f5d94bdf69fd5U, 0x3dd1c3eabe90ebc3U,
  0xbe27c4003c076b41U, 0x3e10c9143ee0d2daU, 0xbc591007be5214afU, 0x3e39cee8be7d4eb2U,
  0x3bc7ff60bdc4ae2cU, 0xbd9e4c19be7feadeU, 0x3e07d87dbe36e4a7U, 0x3e0b78453de9f598U,
  0x3c70bb11bd9b4107U, 0xbbef3d37bd40fccfU, 0xbd850c6cbe090c39U, 0x3d9e370fbe17c658U,
  0x3d2ac69a3e12b436U, 0xbe600c0c3e10588fU, 0xbd9edebfbe033f0bU, 0xbe9e714ebc38df97U,
  0xbe8123e7bea2be2eU, 0x3e67e8efbd81e3caU, 0x3ccc0c90bcc494e2U, 0x3da367a53e0f7595U,
  0x3e1b91bfbe92ff8cU, 0xbd72e4093d3f57daU, 0x3da438dfbe245a3dU, 0x3c092e0c3c2c5f62U,
  0x3d8e7ca3bc98e7feU, 0x3d025e733e3d1a4fU, 0xbdb65f11bcaddf4eU, 0x3cfa60b3bc357ba3U,
  0xbd18d359be95f415U, 0xbc257b3f3d8023f9U, 0xbd7a7739be3b0354U, 0x3e336173bcbc2590U,
  0x3da91aaabe3d3d7aU, 0xbe291945bd8f4084U, 0x3e7780e43c81abeaU, 0xbe2c63dabe6ede76U,
  0xbe867698bd82766eU, 0x3e33a3aebdf0db2cU, 0x3d4db7bebdceb5a2U, 0x3dde7db1be06c920U,
  0xbda206ce3d7f27e3U, 0x3e05ab173d90109bU, 0x3dd1ea9fbd523bf8U, 0x3e16bdc93d6d5558U,
  0x3d8ed2c3bc3ef423U, 0x3db77c163e0cb7a5U, 0xbdca78ac3e106ac2U, 0x3cac1f27becb461fU,
  0x3df0c03d394490d1U, 0xbc91f108bc2cbc81U, 0x3ce447583e0cd429U, 0xbeb460963df1c029U,
  0xbe8d8635be97f5b8U, 0xbe8779de3e4314a6U, 0x3dfbde30be3181b2U, 0x3de3011e3c92db93U,
  0xbe712f40bd6fc586U, 0xbd660237bcd799c2U, 0x3d881493bdff4e55U, 0xbd94d085bd540cb8U,
  0x3d5686023dfaafaeU, 0xbd4593b43cb8657dU, 0xbdc9d91c3dce4884U, 0xbdcb43363d49d051U,
  0x3d1016fcbe0d847fU, 0xbe1cfbdf3e990844U, 0xbd8eab60bd752d93U, 0xbeb96cb63e54e955U,
  0x3c9c35b03b285971U, 0x3e1e7a173e2f7914U, 0xbebd09313ecd05b6U, 0x3cd50e6ebe4a0d04U,
  0x3e18aec7bd20c9b4U, 0x3d0b8b613ec3f333U, 0xbd954afebe4c35e0U, 0xbe3d4c57be149db6U,
  0x3e11ff013d7fb09aU, 0xbd14a9d53cf1c516U, 0xbd8d5321bc8789aaU, 0x3da012f7bc858debU,
  0x3c78339cbd18525bU, 0xbd1ffc94bd8c450aU, 0xbe02f29abd3cc92aU, 0xbe33cfc63d02ff27U,
  0x3e4b5c5ebbc397faU, 0xbdd8e0fc3d9f2383U, 0xbe226cf2be4330afU, 0xbe3697a9bcfb8c98U,
  0xbed0d8b93e5a17e5U, 0x3c753c2b3eab1c7bU, 0x3e546a10bd91c7d9U, 0x3b12b87e3c3a08d3U,
  0xbe7f3eefbe8ae5b1U, 0x3e8338f53e800cb5U, 0xbdd87f91bdf3fcbcU, 0x3e4383bfbdeb00f2U,
  0x394700d43c84465fU, 0x3e09bef5bd085763U, 0xbd0777573cdf6f55U, 0xbd9e5113bc5e7eefU,
  0xbdbd53cebd87db51U, 0x3e63daec3d1c6285U, 0x3e85f8f83c73d829U, 0xbdbdfa953e17c7c6U,
  0x3d5d968dbd8054f8U, 0xbc88c83e3dbf7e58U, 0xbd8f874c3e8ffa75U, 0x3e63bccfbdb0920dU,
  0xbd545db63e638155U, 0xbd966c99be2353acU, 0xbe2ef5783e9428c5U, 0xbc30b3fe3da138a3U,
  0xbd0ecefcbb8d2e00U, 0x3dd57529bbd921bfU, 0x3d84ecce3e1ee10eU, 0xbcc61343bcb2b95fU,
  0x3dbcedd63e069e4fU, 0x3d9fe9c6bd8f0c1eU, 0xbe000741bdd69a82U, 0x3ba817b23c26cb13U,
  0xbe90acb23ce14975U, 0x3f1b22223e82b5f1U, 0x3d23a762bdcff791U, 0x3cf80fcabe636115U,
  0xbdb4c98b3ec97871U, 0x3dce42473e7c4cf8U, 0xbdbde2f03d5c5889U, 0xb90744f43df67378U,
  0xbc80e7ae3e471d2bU, 0x3d8e32cd3dda19e8U, 0x3ceacd4f3e827378U, 0x3dbc95f53dfa14c2U,
  0x3c4893283c9598adU, 0x3d1a5ac33d959dfbU, 0x3d21fb77be022a90U, 0xbc3de226be07b1e1U,
  0xbda623d9bdcf7e88U, 0x3e46a3533e8e4b15U, 0x3db561f63e5d1ca3U, 0xbdf07302bde2a622U,
  0x3dd925003d98fcf5U, 0x3d4735e73d384358U, 0xbe5a12e43e52f52aU, 0x3ec9235ebe3727b0U,
  0x3e87137d3b5c1bc6U, 0xbd9845b9be82b494U, 0x3cd9ae893e51528bU, 0xbe1799d63c93856eU,
  0xbdaf167c3e283342U, 0xbdbbb199bd59752fU, 0xbd90d679bc7c05c4U, 0x3cf1327ebde34a91U,
  0x3e2022e0be095f23U, 0x3e100825bd37e588U, 0x3e96284bbdb56026U, 0xbe85f8103e47cb50U,
  0x3ec03929bdf5078cU, 0xbee350063d42c820U, 0xbd52e7d03d82f05eU, 0x3e2640d03e11599aU,
  0xbd27af1a3e69746fU, 0xbe1542b6bdb024bbU, 0x3c7a5ff83e0d10fdU, 0xbe700da8be511c3cU,
  0x3e31ae5dbe4a11fbU, 0xbe5184453db1e13aU, 0x3dac6e493db366b7U, 0x3c852692bd3d2c79U,
  0x3d3c908b3d9d49ceU, 0xbd29991bb7bb4846U, 0xbd39088bbd40018cU, 0x3c694759bb96a6abU,
  0xbe88e97e3e93f906U, 0xbda1309abe01b07aU, 0x3cccba703dd67d31U, 0xbdc51b81bd9f9a6cU,
  0xbe00d8e7be0ed428U, 0xbdcb801fbd9a048fU, 0x3e82fe0abe940958U, 0x3e3238efbe3e26b8U,
  0xbc80cbb03e06554cU, 0x3deb7f9a3dde9615U, 0x3e57a7ddbd2746aeU, 0x3ea6671dbe314cf6U,
  0x3c4332433bcf773bU, 0xbc9c34dd3dbaec44U, 0xbd79b5d53d7cbc49U, 0x3dfb7ca13d89d7f9U,
  0x3d10854d3c9f64f2U, 0x3dc8bd1f3d638e61U, 0x3cb00671bda76c62U, 0xbdadff42befc0f6aU,
  0xbe48441abd11c74bU, 0x3e8ce1fa3eaef5bfU, 0x3cca78b2bcdadcc7U, 0x3ea3e1423e29d7f5U,
  0x3e8477873ec14d25U, 0xbe818aaabd6e4a74U, 0xbe948da73e650db6U, 0xbe569d923e96cec9U,
  0x3da629e63d0750baU, 0x3e611bfa3ccff136U, 0xbd0938b2bda57b48U, 0x3e0665ec3d08c03eU,
  0x3e0617543d8f69cdU, 0x3d9ec6e73a5ab94dU, 0xbdaf08e0bccab497U, 0x3c6f53b73da04da4U,
  0x3e2122d7bdbf39e7U, 0x3d80a8da3e8b9e03U, 0x3ce51c423de03516U, 0x3dbb26a53e916639U,
  0x3d184352bd3ac214U, 0x3ef41f14bd10e7b0U, 0xbe797fd13ead54c3U, 0xbf0091c3bd761591U,
  0x3e7e84e6b942b96eU, 0xbe0a97e83cf0d8a7U, 0xbe47464d3de11f56U, 0xbec64b833da5784dU,
  0xbe3c0b81bd9486a1U, 0x3e1da6ecbd649f31U, 0xbd03e4433d93af24U, 0x3dd45f3bbd00d69aU,
  0xbabd8f19bd386566U, 0x3dc891423e0bea94U, 0x3e1ca35c3da7f5e6U, 0xbaa873783ddcb86fU,
  0xbce584a6bd682ba2U, 0xbd582fbb3dd1b419U, 0x3ca048783deea02dU, 0xbe2afa923e26cbbdU,
  0x3e2c54763d95bc3fU, 0x3e39ab9bbc010905U, 0x3d27bd413d111cffU, 0xbe553d48bc9224b8U,
  0xbdc72f18be58b5abU, 0x3d9c0c893e77b18eU, 0xbcacf7473c6f0be5U, 0x3e5c86fbbd87ee53U,
  0x3ceffb5e3d3d5df5U, 0x3ddca8af3d8da04cU, 0xbd32844e3dc06587U, 0xbdeb11e93c3a7875U,
  0x3e3c8f1abe14f8c6U, 0xbdfa8abebe393a3fU, 0x3eb7cddd3e0a69bbU, 0xbea263d0be58162bU,
  0x3e00b237bd1b0292U, 0x3e5595353da89d5bU, 0xbbb24e2e3e6823d5U, 0x3e23b6623e589cbdU,
  0x3d81b7d1bb8ecc72U, 0x3de8a0463c316ea9U, 0x3e4941393e26c5f8U, 0x3e8a95de3c4ad292U,
  0x3d9f37af3e0322c8U, 0xbd14bd1bbdf366f4U, 0x3c6aa18b3d840233U, 0x3e0996a23b556f8bU,
  0xbcd023ae3dcac33dU, 0x3d7b7031be1c26beU, 0xbee90efa3dc5db44U, 0x3eb273e9be9c09cfU,
  0xbe169fc93e3c8b70U, 0x3f0876ebbe92e610U, 0xbc0ca7d03de4f712U, 0xbe24185abe2a68fdU,
  0x3e3613b6bec763aaU, 0xbed8598ebe992aedU, 0x3e22ffdabddccf70U, 0xbe395d313e3684ceU,
  0xbe1f51c03e59fe67U, 0x3d9f2969be071ebfU, 0x3d80e683bd093a2cU, 0xbc7b22b9bb0b0b02U,
  0x3d7e21dcbdb4ac99U, 0xbd88b4dfbd0fbaa9U, 0xbd875d473daa9d50U, 0x3d2693193d37a35dU,
  0xbeb5d5c73b5f4adcU, 0x3eb652803d837c0fU, 0xbf085d13bde9f5b2U, 0x3e8e4a223e0ba216U,
  0x3de3e74b3dc2b605U, 0x3eb04e84bdc92442U, 0xbb55aa703e5593a9U, 0x3e27952f3d86cef2U,
  0x3e36c93f3e8ce06fU, 0x3c1c8e12be454ad6U, 0x3e859eb33e188b83U, 0xbd0f47833db32289U,
  0xbd06584e3d90282eU, 0x3d8cb3eebd07ccddU, 0xbc9cc64c3dfaae87U, 0x3d5a31b7bdf4774eU,
  0x3d95b26bbdd12d06U, 0xbd63239fbdf199d7U, 0x3e410d5cbe0b34eaU, 0x3e2df189bce3a963U,
  0x3e81cef93db369efU, 0x3e422d3e3ecdfa66U, 0x3d17a7c23dff0f4dU, 0xbd45a5c3be66376fU,
  0xbe23c5c23ea2f3deU, 0xbe9d6dbbbea554a1U, 0xbc399c8dbd66f53dU, 0x3d92d129bc88721fU,
  0xbbaf2609be22521bU, 0x3df2fca5be1592c6U, 0x3d91182abe0aefffU, 0xbd0b90fcbab75ee2U,
  0xbd1106bd3dad52edU, 0xbd77e8f3bc406520U, 0x3d9381babda46529U, 0x3a9085163d90df17U,
  0x3e6540303dd994b8U, 0x3ad57f2fbd95d49fU, 0xbde9f2cc3d6dbb1aU, 0x3d135a30bec1c372U,
  0xbd9e8d0c3c965008U, 0x3eb8737dbdf138d1U, 0xbe80b6323d9a96a7U, 0xbe5bc1223e35d21aU,
  0x3e4d111e3d6e2bb0U, 0x3e2c46f5be0cc067U, 0xbe0d6d66bdc62bf2U, 0x3d8182063e8e655bU,
  0x3c84a65abdc9e635U, 0x3d94ca47bb964f2aU, 0x3d30eeee3dcf4355U, 0x3deeff743d50c9b8U,
  0x3d6cf7e93d06060bU, 0x3dafc387bb52557dU, 0x3d29b72a3a921953U, 0xbb60ac6f3e05e121U,
  0x3d14cf983cbcaf36U, 0xbd35dd233c914f8fU, 0xbe81b17ebc1a3782U, 0xbd778652be5a6548U,
  0xbe8971a53db7d443U, 0xbd38ec923d6a0735U, 0x3d8dcb2dbe044b6dU, 0xbd845e963d34461dU,
  0xbe8529da3c45879bU, 0xbdf5bd583dcfe467U, 0x3d93c8333da88448U, 0x3e938ef93d8152caU,
  0xbd3624663a3a0327U, 0x3cfdb4f33dc6d41cU, 0xbd543686bd93e0b7U, 0x3d21e8493dd5121cU,
  0xbceceb813dc47d96U, 0xbe4043d0bc958659U, 0x3d2dbba1bdae7271U, 0x3ea7f7c0ba31482cU,
  0xbd3558673dfa3a9dU, 0x3dddab023db8b840U, 0xbeb482dbbe01b8eaU, 0xbec4e09f3e2a9178U,
  0x3e7d517f3d7d257dU, 0xbe1e8ffebe3fcc28U, 0xbe166b033e1821f5U, 0x3b935edd3e58ef76U,
  0xbe8b81523b8ab3b4U, 0x3e0a76a23c0dc126U, 0x3d286cc4bd9e8a17U, 0x3c49916e3d5590ecU,
  0xba249289bc569498U, 0x3b90568d3cdef2c6U, 0xbe59100bbe51b076U, 0x3e0c0a603db02dc2U,
  0xbe08047b3c5fb2d3U, 0x3ea7f131bda97247U, 0x3d9a6a323d5cf475U, 0xbe34ad7d3d0941cdU,
  0x3e52deab3e9693e5U, 0x3e8d9779bd9bdebaU, 0x3d9395f4be6d4d58U, 0x3e5048893e54953bU,
  0xbdc018bdbd2d5eaeU, 0xbc909509bd2133e3U, 0xbd1604bdbda861c3U, 0xbc9da3693dd8853cU,
  0xbdb8b6be3e5161afU, 0x3d91c9663d98fb16U, 0x3d0172dd3d82db77U, 0xbcc28ec2bdc7fe68U,
  0xbcc946ee3e51ba56U, 0xbe0075143e6e20b2U, 0xbd3560fbbde6edd0U, 0xbdd545ea3ddbbcb3U,
  0xbd85a34e3e3abdd2U, 0x3e0102e0be5d4ac9U, 0x3b651e87be8f4d1fU, 0xbdcd34a2bd8facceU,
  0x3e21f6fa3d303629U, 0xbe14e7aabd2b1f04U, 0xbe94fa213db51bacU, 0xbd87b3b1bd98d362U,
  0xbe6ba239be180655U, 0x3d17712c3e0775bcU, 0x3d4012f5bda025a2U, 0x3dd5b9093e010d8eU,
  0x3d5771bb3dd533d0U, 0x3d5e093b3dd829b7U, 0x3dc316fabd41c1ccU, 0xbe0f293dbe0c4eedU,
  0xbe9fd3173e519275U, 0xbee44b5bbe01e589U, 0x3bc0de38bdab2fc6U, 0x3e0966ab3dd38241U,
  0xbe4f15013e1be3dcU, 0x3e89bd85bc07e10cU, 0xbdaebb1cbdb4151eU, 0xbe04fa363e0a53eaU,
  0xbe57dea13d08c01aU, 0x3de81fed3da1b84aU, 0x3e0123ee3b387ac9U, 0x3d1598723dae6bc6U,
  0xbd6e15debcb0c0b1U, 0x3e33f6163ddffa90U, 0x3db40063bcacfaa7U, 0x3c5ad470bdf13909U,
  0x3e08114d3d040161U, 0x3d532d91be715fecU, 0x3dc41d14bc77dfbaU, 0xbd5681a6bdb13f7eU,
  0xbcfaf122bd1f5a46U, 0xbed5841ebc8d3273U, 0x3e18ddca3e95095aU, 0x3e9b6786bd4d67beU,
  0xbdc96426bd2b0063U, 0x3d456ef53db1e1f1U, 0x3bce52dfbdf94595U, 0x3e0315ff3e12115bU,
  0xbe7b540dbe31ab87U, 0x3e4c63e9bdb6d10fU, 0xbe353acd3de9448cU, 0x3d1aa851bd829b10U,
  0x3c30e72abcf10f4aU, 0xbe262eb1bcd27870U, 0xbda1e4053c8c3305U, 0xbe4202cf3d93965dU,
  0xbe1474bc3e0b005aU, 0xbeb57af23e84032fU, 0x3c5319bcbce4e90aU, 0x3e4192f1bc9b1748U,
  0xbeaf667cbed88e0eU, 0xbdd8da47be1ba322U, 0x3e63fc72bd019e68U, 0xbe32707a3eaf8f4fU,
  0xbb69038abd859e55U, 0xbe54d4ddbca863a3U, 0xbd1080bebd167a31U, 0x3dbf5a82bcc641a5U,
  0xbd50f1abbd4b8179U, 0xbd1dc0f7bd9ef71eU, 0x3c9ba0c6bba9c765U, 0xbd8f1a633da51bd5U,
  0x3e0a8d953ddbfb6fU, 0xbdef0f8cbe04597aU, 0x3d444022be1c2ea6U, 0xbe15e24a3e7a497aU,
  0x3dffb2e73e59000bU, 0x3c1d242b3ee39656U, 0xbe2ce829be4c40dbU, 0xbde2f1e23d3f8937U,
  0x3e755ca63d9f103eU, 0xbe4c15e3bde118efU, 0x3dcaddc2bd253548U, 0x3e3daaa8bcdae2e4U,
  0x3c4be90b3d12ffe6U, 0x3d65f0adbbbfd523U, 0xbc997636bd3369dcU, 0x3c3e27633d3c19ccU,
  0xbd39c6303bdd1eafU, 0xbcf35e803d8f420bU, 0x3c0fa60a3dfbc030U, 0x3b0040fc3e8f79a1U,
  0xbd3eaffabe906ba0U, 0x3e297b6e3e031e9bU, 0x3ded71eabd503a42U, 0x3d6fa7be3c9bde6eU,
  0xbc7d9d113d261c60U, 0xbda5c5933e9ffe03U, 0xbe3f5c6bbcacbd98U, 0xbd6578bebe5712b8U,
  0xbdc0bce63e8dea4eU, 0xbdef49293dd1372bU, 0x3d847a3cbd3279d2U, 0xbd1b2e7ebe03f899U,
  0x3cfd27c2bd022c49U, 0x3d2429ce3e03a8b4U, 0xba92e541bd16311aU, 0xbda22bfbbda6bd12U,
  0x3ed7cda53e495901U, 0xbea86bbebe500feeU, 0xbe782dc5bddb1640U, 0xbea1130fbc84a905U,
  0x3d7f03813e2154cdU, 0x3b97e8803c1c6187U, 0x3e9840163e497786U, 0xbcefdd2e3c11ed4bU,
  0x3db10f593c63a8a0U, 0x3e58bb5ebcb7d490U, 0x3dd7624fbe59d16fU, 0x3e7890923dc5d9c5U,
  0x3cddd8503cbb55caU, 0x3d2f41243cbd27bcU, 0xbd9e8a0d3d2d27deU, 0x3d798f95bdc6c3b5U,
  0xbd569c6e3cc191b5U, 0x3c90fd88bd7dd1f5U, 0xbcf1aaee3e44a02dU, 0xbe35b3d6bddbbf6dU,
  0x3dd0edc2bba57f7aU, 0x3e22eb1abd4253c7U, 0xbd48448f3de44a61U, 0xbe3e83503e249201U,
  0x3e04ee7cbeb9175aU, 0xbe47d334be54c22bU, 0x3e33d141be36412aU, 0x3d28dd81be58da67U,
  0x3d8b6867be5375dfU, 0x3e0433a7bdbca479U, 0x3e0ab7913cd4a0dcU, 0xbd11e778394c8eaeU,
  0x3e196081bc32a042U, 0x3cee6f35bc0bbf23U, 0xbca035873c80bfa6U, 0xbc08d407bd6f7dc7U,
  0xbdf6318abc382ff9U, 0x3d4dc1a0be35d6f8U, 0xbdbabfdfbd42f2eeU, 0xbd83f7ba3ece95d9U,
  0x3c24aef1be05a2a3U, 0x3e3163b83ba04a82U, 0xbe230d663dbbe54cU, 0xbe5047e5bec70389U,
  0x3e88f8b43c1eb5feU, 0xbd5d2a363e4d5cffU, 0xbe912f8a3e032f27U, 0xbdf29507bea25f8dU,
  0xbc5b7cca3dd9b0c3U, 0x3c50d1bf3d7bc6cdU, 0x3d90efb7bc2c281aU, 0x3ab18f7e3e075e33U,
  0x3dd733c33d453ea8U, 0x3d294c7f3ae04606U, 0x3e591bd23e411c64U, 0x3e3ac0d53e852ec8U,
  0xbe6850ed3d8450edU, 0xbe9c265c3e98905aU, 0xbd14f1a03d016950U, 0xbc9b9e52be659958U,
  0xbd9fdcadbeabc1afU, 0xbe254f793d43febaU, 0xbc63a5003bfd21b6U, 0xbe6f804e3e7c6990U,
  0xbda9aeddbe61d012U, 0x3ca6d4d1bddc63f6U, 0xbda0b9773e04999fU, 0x3d5e9d3f3d72589fU,
  0x3ce20d963e00c58cU, 0x3d58bd153d89590aU, 0x3d31279fbc78d3bdU, 0xbdd25f3b3cf98c7bU,
  0x3e780d2ebe0454b9U, 0x3dff44e3beb1d51eU, 0xbe09254e3d710069U, 0xbd90844a3e1a73e7U,
  0xbc6cbe633e03fbe8U, 0x3dc2f8a13dc35ea0U, 0x3e3e44eb3e77adb0U, 0xbec114c1bd1f1033U,
  0x3d14673bbdfb7078U, 0xbd8b2ff03d42ccc0U, 0xbe415a973e2cc678U, 0x3d345c2c3db8783dU,
  0x3dc2b32dbd955e4dU, 0xbde535aa3cb4a559U, 0x3d0954e2bce90b86U, 0x3c9005f7bdb5cb61U,
  0xbd3d8c523d8373b9U, 0x3cac4e5c3cd769c1U, 0x3e9a90bbbe1e4006U, 0xbe3e46e83e0578b3U,
  0xbea95ecfbdd2c384U, 0xbea2e7e33e83c2beU, 0xbdcbea323da84946U, 0x3e9e35003e8d6d42U,
  0xbda8d197bb48041eU, 0x3e9e4c5c3dced3e7U, 0xbde7a0793d450e47U, 0x3e04e8a9be3eeb58U,
  0x3dd789e0be16618fU, 0x3dd76422be339153U, 0xbd3a1547bd71be71U, 0xbdda36d83d591610U,
  0x3cf82a53bd46bcf9U, 0x3dc11188bc9a17ffU, 0x3d296b3fbd981bfcU, 0x3c2bd0afbdd8bf3fU,
  0x3e2ba9ae3d8a07d7U, 0x3e246f25be464e4dU, 0x3e1f4889bc400cdeU, 0xbe963770be431a1cU,
  0xbe482bf6be62064dU, 0xbc4fd5d23df532d6U, 0x3e056e8bbe2c10b3U, 0x3d7701743e8ed149U,
  0xbc356b4b3de5348dU, 0x3c72a4e6be6563a9U, 0x3e81976bbe194abdU, 0xbdd5f816bd0974e9U,
  0xbde619513daf4bd3U, 0x3cf9f266be3ad59dU, 0xbdac78c83c07c2c2U, 0xbda85077be48eea4U,
  0x3dc52e8cbe0388ebU, 0x3b2942a7bd826e83U, 0x3ded85163e183497U, 0xbe7a89c43cb7875eU,
  0xbef50912bd3d52bdU, 0xbe351aecbc4fd374U, 0x3dda31fd3daf7735U, 0xbc7a7e173e83d390U,
  0x3edbb552bea1b4baU, 0x3eca76453d5d0a7fU, 0x3d897574becd1411U, 0x3d67c898be2fd1d1U,
  0xbcf6624cbe5e8858U, 0x3ecc0418be2a0575U, 0xbc4a8b29bd2d62b2U, 0x3ca74732bbe4a3f9U,
  0x3e0ddb313c1152fcU, 0x3d42fe9d3c5bb0baU, 0x3ddc05673c410531U, 0xbc8fd4fd3b6c8df9U,
  0x3e0512583e12ff4aU, 0xbe377cdd3e3c60d2U, 0xbe1dba0a3d76de42U, 0x3d8bf2e0bd860a65U,
  0xbb88b5523aa595f6U, 0x3e88a867be399accU, 0x3e95b99f3b01cce2U, 0xbe9a1c223cac6fa3U,
  0xbdcf40ca3db2365dU, 0xbc2b49b8bdca5a26U, 0x3d65c0a23d851279U, 0xbdf7731c3e065a97U,
  0x3ced62053e2d54bcU, 0x3dae38053d17b09fU, 0xbd1f62b0bd29dc46U, 0xbdbe18a03d9372ecU,
  0xbd639528bc61fee1U, 0x3dc2e7683d8c81a1U, 0xbe169af13e622070U, 0xbd6c76e03e39f11dU,
  0x3e597e0dbed58aa3U, 0xbe922caf3c7f74f5U, 0xbc3c04663e241786U, 0xbe91bd463de5ee5cU,
  0x3ea2f8dfbdf8a5a6U, 0xbec8e9013d1ea045U, 0xbd805cbb3c93aadbU, 0xbe4911563e8730feU,
  0xbe21a8dfbe949937U, 0xbe5da79e3c29d303U, 0x3cb1a6363d0825ccU, 0xbdd4f2c73d0eaed2U,
  0xbd5aaf253c8d9293U, 0xbcfaae5dbda3a6b9U, 0x3d935a24bdaf9a97U, 0xbdcc9ef4bd5fbb53U,
  0x3de388423e7d22e2U, 0xbc3836ce3e324fd9U, 0x3dab95533c5be1c9U, 0xbe44e6693db9e04dU,
  0xbe49b1cdbe178458U, 0x3e23261dbdadbcc5U, 0x3deca46a3e8831bdU, 0xbeee11103e71277dU,
  0xbd68b61fbdd0b2e8U, 0xbe317e8f3d358866U, 0xbd8343503e66ba3fU, 0xbd3274f03d3c0abcU,
  0x3e7bf3f83e8719b8U, 0xbc8cdcaebdb4a47fU, 0x3da022123e0a4746U, 0xbe00cfb3bc89b37aU,
  0xbda0374e3ce0c32cU, 0xbdb8601c3da793a8U, 0x3c7dfd133e8526a9U, 0xbd403dcbbde37ea5U,
  0xbe6332f6bdf38b09U, 0x3bf53968bd60530eU, 0xbaf0a286bda66821U, 0x3ea9db493d8ff306U,
  0x3e3d412dbe86e417U, 0xbe4bace03cd95151U, 0xbdc4d84c3e0c2bf4U, 0x3d8b13e63e3a198aU,
  0x3e6161f93e2382e6U, 0xbc6405fdbe36b093U, 0x3c1a0754be0bf836U, 0x3dbc62fb3ae368bcU,
  0xbc78a4f3bd13603bU, 0x3b8a8c86baf2f116U, 0xbe1d604abdcfc094U, 0x3e3d7cbe3bc6c32bU,
  0xbe8d9be43ca596f9U, 0x3e4ec30d3e8201eaU, 0xbc5dbb753dcfcde8U, 0x3e8bc8e6bccd6fcdU,
  0x3e0289cd3e2e9fd8U, 0xbe1c655c3e534fdfU, 0xbd7609bb3e7af265U, 0x3e6bf8013ea08cd8U,
  0x3d91e4253e37c269U, 0xbe210c703e2bf0d8U, 0xbe050d723d6e4337U, 0x3e1a213bbd61892bU,
  0xbd34f1aa3d9c2642U, 0xbd8a3b35bcf31b04U, 0x3e14b33c3da2ddc2U, 0x3e0801133dd0344cU,
  0x3d9156393d5aec73U, 0xbd02d4b43b2af9baU, 0xbeb22f563e15ffcbU, 0x3dd9b351bf1293cfU,
  0xbe67119bbceb5948U, 0xbc73f1a33de72409U, 0x3da2fc8e3d667ce7U, 0x3cbb912b3e10d086U,
  0x3e8a0adebe9f5912U, 0xbdd7d0ba3eb615aaU, 0xbd4534f13e2a29f9U, 0x3da3bf1fbe3aca08U,
  0xbd39ae693ea76127U, 0x3c2de29c3e3306e4U, 0xbd9d149bbcd1613bU, 0x3d53ef34bca3ea3aU,
  0x3d640485bcf439caU, 0x3ccd530c3e1f65fdU, 0xb98293653c8944eaU, 0x3daeb5bfbde0a40dU,
  0x3dfe36b53db12299U, 0x3dcd087a3d6ec97dU, 0xbe13b341bdfd1126U, 0xbe4a1f82be92f4eaU,
  0xbe22cfeabd8366d8U, 0xbd4607193e1d48beU, 0x3e9e9c393e446af9U, 0xbe70fd313e4fe585U,
  0x3be82084be06ac5eU, 0x3e21337dbd9ef894U, 0x3e639b89be3223fbU, 0xbe1a3ccebcd1f027U,
  0xbdf2988cbdaf8cf0U, 0x3dcd058cbde636b2U, 0x3cedeaac3e07d178U, 0xbdaa81d0b9837890U,
  0x3da8cfc3be0ac06aU, 0xbd9de8a6bdbba5a1U, 0x3d05a2473ed13042U, 0xbda77d273e9b2d6dU,
  0xbec44fa73de7a013U, 0x3e897c713e4e6e95U, 0x3cbabf693e113d70U, 0xbd3036ddbe19c445U,
  0xbe06df9dbe1407c0U, 0xbf07d24c3d312ba4U, 0xbdfee8b6be595314U, 0xbec048b8be01a8deU,
  0xbe8262b6bd7ddf0cU, 0xbeb0db0ebe2e79d2U, 0xbe0891cabe04961eU, 0x3c997ccf3d208c46U,
  0xbda56914bd9d488aU, 0x3d0dee303e05170dU, 0xbb0d20f7bd63fd94U, 0x3c0847f9bd0737faU,
  0x3e382339bde043a4U, 0xbd79e31abe92b50aU, 0xbe0ed139bdb41946U, 0x3eb7f311bd3a91c0U,
  0xbe388710bd872c13U, 0xbcdfd019bb4ae3b5U, 0xbeb6779c3d4cea68U, 0xbe4bcf6ebe079eafU,
  0xbdd99d68bd94b1c4U, 0xbd58f5683de26807U, 0xbd9536b33d123bfeU, 0xbe714050bcaccf00U,
  0x399570b7bc92aebeU, 0xbde88c853e898079U, 0xbdbe39afbe4a59fbU, 0xbcad9c7a3d1b62e5U,
  0x3cd4f62f3acfe99cU, 0x3cb936ecbdaab784U, 0x3daba38dbd79c92aU, 0x3d1b54733d6f453eU,
  0xbdf30a473d735914U, 0x3e5ffcecbdc58be5U, 0x3e01d5b03e1ff3ddU, 0x3d9676453e541173U,
  0x3e8779833e7af626U, 0xbeea703fbed1955dU, 0x3dd7b91cbd87dbe2U, 0x3d7d0cb03e68b957U,
  0xbd8d6227be142789U, 0x3e8769773d827475U, 0xbd3bebbdbd68d1f5U, 0x3c87df0d3dce856eU,
  0xbda708dcbdc0f061U, 0xbcc6d5753ca17812U, 0x3d016d003d992286U, 0xbd901bf0bcef3779U,
  0x3e6fa234bdb62606U, 0xbdf92698be640fbbU, 0x3e3056413e136471U, 0xbe164248bdfabd26U,
  0xbda3baeabd2bbc86U, 0x3dd6fde7bdd35c68U, 0x3b9a84a93eaea846U, 0xbf076c713e538269U,
  0xbc478db33d9b1761U, 0xbdae9c34bb5722daU, 0xbb806b573e429ad4U, 0xbde3759f3e071d41U,
  0x3bb90f13bd94d360U, 0x3da07f4c3dddd441U, 0x3b9027813db0ce4fU, 0xbde421373dad4f66U,
  0x3de8d14c3dbcfdc3U, 0x3d37dcaa3bf6c7f8U, 0xbe6939a2be8d666cU, 0xbdeb4c253da73cb7U,
  0xbe8a7a9ebd593e08U, 0xbbfbbb563e08a7b9U, 0x3d5e9623be398c56U, 0x3db4bb173cae95caU,
  0xbadf6e4f3e447f8cU, 0x3e5f9de8be8c79f7U, 0xbdc22b75bda9b495U, 0xbc50be16be7f9113U,
  0xbd7707243e9be2f2U, 0xbda1acf1beaf2edaU, 0x3d6d1078bd8e93a8U, 0x3dafe53b3d8747a3U,
  0xbc819bdfbd9f7b1cU, 0x3d4c774ebc3912d0U, 0x3e2f3da1bd7676beU, 0x3e462583be1f2495U,
  0x3dda1e6abd4dbd6dU, 0x3c01ffc53e868b3aU, 0xbdf7271a3d2d5c67U, 0x3d605f2fbe51a124U,
  0x3e03e9963e6aee58U, 0xbdf130a63dd503ffU, 0x3d02e865bd416096U, 0x3eac16debec64aa7U,
  0x3da1483d3c7fe143U, 0x3e108a503e649506U, 0x3d4e5bc7be2a8f19U, 0x3e88293abdd34d0eU,
  0x3c462cf5bce03297U, 0xbd59b336bdabcabaU, 0x3d353c33bd0c9d86U, 0xbda469483da930c8U,
  0x3af491f8bc7cf24eU, 0x3dd5a64bbd826432U, 0xbe29ad6abe76a36cU, 0xbbd229f7bde58b38U,
  0xbe783a28be5a3dd5U, 0x3e621b453ea25fbfU, 0x3e1afc4d3df2deccU, 0x3df9e6cdbdce89b9U,
  0xbc8fdf8ebdfc6654U, 0x3d8e33b7be507d77U, 0xbe1440e7bde152d2U, 0xbe32861ebd7f3bd4U,
  0xbdbf090dbc1486ebU, 0xbe4dad4cbd9f45f8U, 0x3daccbda3e095254U, 0xbe0884a9bd3957e5U,
  0x3ce29f253cba065fU, 0x3c4dfb0d3d9ab9ebU, 0xbd293cb83d80fe58U, 0xbcd1605cbbbc6eeaU,
  0xbe02b843be812e37U, 0x3df4d1b73be503d4U, 0xbd7f19c5be907cd5U, 0x3e92311f3d8638c0U,
  0xbdc2e856bd109293U, 0xbf1b578b3e71415dU, 0xbd80f07fbe66434eU, 0xbd95ea573d95239eU,
  0x3d055c07be7dd815U, 0x3e12fe52be1470b0U, 0xbd8d17fdbe1206c8U, 0x3e14c3413cd6292bU,
  0x3d35a7a7bd9fa737U, 0x3d5d0dfd3e63ce74U, 0xbd534cb63c8275cbU, 0xbd8a1926ba4f9157U,
  0xbd95fa6dbe4f0e29U, 0xbd27daf7bc01f3a0U, 0xbb67335f3ea40d80U, 0x3d8db730be479745U,
  0xbcc7c01bbe35fd5dU, 0xbd715408bd7350f6U, 0x3d4d78d5bd3f847bU, 0x3e123028bb92ff77U,
  0x3ddbb9b4bc627ffdU, 0xbeaad2883e2a8c06U, 0x3ca9265dbe37bd9aU, 0x3e045b1b3ca9d524U,
  0x3e1165b63e39364aU, 0xbcd5569a3d50b92bU, 0xba9036223e0d44fbU, 0xbd112513bd9bb760U,
  0xbcb7a099bb1f0cbfU, 0x3d56a8723d0f2fdaU, 0x3c3581883d8df9d1U, 0x3bcda916bd0646daU,
  0x3e098dadbe1e0795U, 0xbd9b005fbc132027U, 0x3bd063943cde1415U, 0x3ea726b4bcbd1aa1U,
  0x3e494de6bd134c5fU, 0x3e7032bcbe85aeb3U, 0x3e2c6cea3e292800U, 0x3bec5826bb38b76aU,
  0xbe99dc9bbe4e992dU, 0x3e4fc1fd3e48fbd4U, 0xbdccc3543cc6d4dfU, 0x3d53ad2bbbaf1a39U,
  0xbe6f14b7be017d90U, 0x3a6b57833d3d1316U, 0xbe0babbfbc65ba31U, 0xbd0a2be53db72f6cU,
  0x3d9e45afbc2cc9adU, 0x3e16cb143e07aa89U, 0xbe95cbf73e8e4481U, 0x3e8776d13c214e5aU,
  0x3dd155843da6d1a4U, 0x3e90f905bb9d1393U, 0x3d7e6b4b3e30afb7U, 0xbe804dd1be7cc2eeU,
  0x3dac77bcbeeb3d37U, 0xbeb577d93d288945U, 0xbe4053abbe868d5eU, 0xbdaa46903dd407edU,
  0xbd8559443de4ed95U, 0xbe5fc633be13c80cU, 0xbcac15e9bdc3bfb9U, 0xbda46113be0c5127U,
  0x3d4eda963d08abd2U, 0xbab5b9813d902e3eU, 0xbc3213d93d9ec700U, 0x3d1bf7fbbdb626f1U,
  0xbef06b67be77c410U, 0x3e6955a3bcbde883U, 0xbcfe7637beae61beU, 0x3f107309be1cdfd2U,
  0xbcd65af03e091700U, 0x3bd9fc24bd931cbcU, 0xbe5331703ebaf594U, 0x3e402caf3de62993U,
  0x3d02c0343e5501d4U, 0x3d51df20bd7d2df8U, 0x3db60c4c3ec54667U, 0xbd81f0b0bd25c064U,
  0x3bf0015bbc469077U, 0x3d2f553b3d6dee58U, 0x3c5750223d949431U, 0xbdcd75dc3d4bedeeU,
  0x3daa89813d258d2dU, 0x3d4e20e43db2f1c9U, 0xbdb22c973cdae752U, 0xbd4f0e0fbe43c9ecU,
  0x3d5047973e44c2e6U, 0xbe8576443dd15686U, 0xbd5056f03cb0aeadU, 0x3e69274f3e1d4f79U,
  0xbddb53c0bed1b927U, 0xbeb698133d930c5aU, 0x3e439d183de21173U, 0xbc6b00cdbdb2e858U,
  0xbd63e6743dc0fa0fU, 0xba01c2ecbe125ac6U, 0xbd79f5e33d132632U, 0x3d9a0867bd8b06d4U,
  0xbc896df63d8e3788U, 0xbe0c949abc061564U, 0x3de10fee3dca8ae6U, 0x3d1f2f34bde52ebaU,
  0x3eccd8e53dd7b7e4U, 0xbed55647bd510e13U, 0xbdf4b2e53dd09bd4U, 0xbde1e695beb08b9eU,
  0xbd48c0913dbc33b2U, 0x3d842f073d26ee84U, 0xbdd8b76e3d8e41dcU, 0xbd42f4fa3e021783U,
  0xbe744e1a3e7ff0c1U, 0x3db3558a3decd132U, 0x3dbd73a13e7f5c65U, 0x3d866be73e17b7fcU,
  0x3c9cbf5cbe257c64U, 0x3c46f2473e93b445U, 0xbc887638be2d817cU, 0xbdfe908e3c0b420aU,
  0x3d1c9f7a3dd7133bU, 0xbd481a80bb74921dU, 0x3eb9cb54bd033adcU, 0xbe99a15f3d2f6a21U,
  0x3ec5912b3c849984U, 0xbec95d523b9d4192U, 0x3e24dce93e3cab7aU, 0xbde50b393ce9e798U,
  0x3eb6bd29be058acfU, 0x3ee6b142bb68dcb7U, 0xbe6029e1bd0730caU, 0xbc6c50b33e102b5bU,
  0x3e444a4abdb26f8eU, 0x3e480d9fbacef99dU, 0x3c52f4d1be038e4fU, 0x3dc2859abdec0adfU,
  0xbd462e5d3bfa92efU, 0x3db9e2e93d2dc949U, 0xbd9d1e51bd9efefeU, 0xbd0ff0643db9b5ecU,
  0x3d5568d7bdb75130U, 0x3dffb99f3e907115U, 0x3e14b8cdbcbfcaa6U, 0x3df9a8a03eca0d80U,
  0x3dd2c1b2bcfb901aU, 0x3ec49a1abd8bebd1U, 0xbd1912873ed52965U, 0xbc52e8653e24d5c5U,
  0x3de1a917bdbbc79cU, 0x3cf001863cf06cafU, 0x3d896ee83ed8d376U, 0xbcecc863be115f9dU,
  0x3e42b5123e70ffafU, 0xbdeeb7603cf0f7c7U, 0x3c0a7340ba96b328U, 0x3d141e63bdfcada1U,
  0xbd3ffd12be506532U, 0x3ddde1a4bd93cd24U, 0xbebf633dbd88a01fU, 0x3e15e006beccb6e7U,
  0xbeb258a8be4e8447U, 0xbca547f23e41dcddU, 0x3d4943bf3d02b6b6U, 0xbda61d6c3dfd67e9U,
  0x3d1904723ee19307U, 0x3ed425993f0ac388U, 0xbcd7beddbc1b2d12U, 0x3e4de245be7cd9edU,
  0x3e2730233e8a8b04U, 0x3d8de4dc3e5e043cU, 0x3e05cf843dd6a50eU, 0xbdf5c984bdea257aU,
  0x3d227d0d3ce0575dU, 0x3b7dcaab3d83ae3eU, 0xbb781eb13d3b1b94U, 0xba0200aebce5751fU,
  0xbed8d57abd8bbcb7U, 0x3e23606dbc7bcdc3U, 0xbd81d1743d5399e8U, 0x3e7b3af63e03b877U,
  0xbd8f73f5bd93dc00U, 0xbd80e4f23e0f9d87U, 0xbd9e6e1a3ea92ce2U, 0x3d3daad1bcf5da57U,
  0x3e74f9b5bdfcea98U, 0xbcdb671dbe8662f2U, 0x3de19e7b3ce80593U, 0x3db637753e01a32aU,
  0x3d14f9b9bc2f8e49U, 0x3e1561a43cc327f6U, 0x3dcc28a73e14907fU, 0x3d3aa03e3ded5a79U,
  0x3c348c87be2b1f7fU, 0x3ddbe084bda0dcc1U, 0x3edae15cbd612c0dU, 0xbea1d17fbe7f4851U,
  0x3df891043e2db719U, 0xbe6fa640be07b375U, 0x3da050f33e38ca1dU, 0x3e13da843e272a12U,
  0x3e0701453ea8b868U, 0x3e0d794f3dc5f622U, 0xbdd75b2bbd56d339U, 0x3e103defbe813ba7U,
  0xbd8aad77ba96cfb4U, 0x3dedc6023d36d59dU, 0x3d1c9244bd7ba1bfU, 0x3db6a73fbcd5b225U,
  0xbd5d0dd33d218d19U, 0xbd14191d3cf679bbU, 0x3d38f9ad3def61d6U, 0xbdc3affa3d712d5bU,
  0x3d33f5e53e2f8fd0U, 0x3d836319be9431ccU, 0x3e1e64ca3d2e6ab3U, 0xbe01cf8e3e8d4193U,
  0xbdf6e9193d99bc86U, 0x3cea8e8e3dc04746U, 0xbe47c7d0be065804U, 0x3df9224f3c94a22fU,
  0x3e31e9743e438a0eU, 0xbd1f388ebd1bbca2U, 0xbdbedea83df54a69U, 0xbd29b89ebdbd69dbU,
  0xbe61aac53c829e37U, 0x3d51f27cbe0a4eccU, 0xbdbc9a91bdc33164U, 0xbd81d647bd15f17bU,
  0x3e2baa7bbd5d3832U, 0x3cbf1f043def0441U, 0xbdc6affbbd1d82c8U, 0x3db089d83db8b782U,
  0x3c8b6c36be9f6d79U, 0xbdd8f0613dff1de6U, 0xbd1a6cf93d149e4aU, 0x3d86f3e43e800209U,
  0x3e760b45bece2b80U, 0x38dba6683e44ef59U, 0xbe6e6a5cbe3ee8d7U, 0x3d38f2f73e6202baU,
  0x3bc09c4cbc2ca092U, 0x3ca0c6d43d65810aU, 0x3cf3cf373d872a7eU, 0x3c505f9fbda0e89bU,
  0x3d85313cbd1abf8bU, 0xbe23ba773d0bac9fU, 0xbc7accacbdf1ee1aU, 0xbd03bdb43d88171dU,
  0xbd376578be57cb7eU, 0xbdd3934d3f127406U, 0x3d2a967f3e545800U, 0xbeb6d0093e859457U,
  0x3dcc92a53e8198e5U, 0x3da0183bbe5c4671U, 0xbe0b609c3dc746f8U, 0x3efa5a15bcaf6f59U,
  0x3c2620e63e1b1a0fU, 0xbe846bc6bd6630cfU, 0x3d8c156a3dca2896U, 0xbe260207be476959U,
  0xbdbcdb853cae0648U, 0xbc83fdecbcb688d8U, 0x3d117ea6bd3542dbU, 0x3d6f64593d2cf5e5U,
  0x3c0c8f06bbad72deU, 0x3b051bdabd205881U, 0xbda2f3833e03b8adU, 0xbb822b5ebeae2693U,
  0x3c73e590bd28c23fU, 0xbd43e4113e327d9dU, 0x3db0c0fd3e362514U, 0x3d2294323eca281aU,
  0x3d819ffd3e1b37f0U, 0xbe156a333e72cc5bU, 0x3ccc38c1bdbc0846U, 0xbca78d00bd109aa4U,
  0x3e431ea53bad0955U, 0x3ccb9f82be338ae4U, 0xbd486129bd1b2c90U, 0xba894ef9bc215994U,
  0xbca211a03c723481U, 0x3d4f3772bceb3e6eU, 0x3c8fd7ccbc9df7caU, 0xbb828d21bb2b1ee6U,
  0xbe8cad4bbe281f8dU, 0x3e6f8b763e30dc23U, 0xbe71fc5b3c8b0dc4U, 0x3e47208e3e1c1c39U,
  0xbc2ad6273db245d5U, 0xbd838d4cbd142337U, 0xbe5cc1853ebabf21U, 0x3e78e937be828f76U,
  0x3cfa388cbd122beaU, 0xbdc632eebd8528a8U, 0xbe25443b3e3d4a3fU, 0xbe2945e5be14f5fcU,
  0x3d5e2da53df3f257U, 0xbd6019433e0aaf8aU, 0x3d92645abd7260f6U, 0x3e14e9b4bd0259e7U,
  0xbdfb017fbdc59bffU, 0x3d117c473d88a307U, 0xbd8456573c9e25c6U, 0x3dc19c483e51e353U,
  0xbeb5b159be7bbbfbU, 0x3eb5e7083e2f22abU, 0x3e25041bbd06bd8fU, 0x3e0794e33d06d437U,
  0xbe3ac864be72f0a3U, 0xbe3170693e100e5fU, 0x3e8ee1dbbe18343aU, 0x3e3532acbce8f42dU,
  0xbc41c07c3e24cf65U, 0xbe337670bd72d206U, 0x3d4541133d3aaef1U, 0xbe1fcaa2bdd5cd84U,
  0xbcd739d5be3d1f17U, 0xbde08ee03d96b21eU, 0x3e0ed21b3a90ad3eU, 0x3cabcb313d5516a7U,
  0xbea15f703dd51f73U, 0xbd2add43bdbd123aU, 0xbd2c8e20bdbbedf8U, 0xbd86f5e0bdfc14f9U,
  0xbe132a5bbe257da0U, 0xbdcf07f93d739badU, 0xbe46aa49bea9d85dU, 0xbe1270d5bdafc24fU,
  0xbe2675553e7847dcU, 0x3c90c6a9be48ef25U, 0xbd73e5fd3d95ec15U, 0x3e6a0c29bdb5f316U,
  0xbe19dd263e117ba1U, 0x3cb3b743bd206f9bU, 0xbdf951acbcf60f59U, 0xbd906d6ebccdebf0U,
  0x3dc8aef3bde41041U, 0x3d95d3b13d8f997cU, 0xbd0eef9cbe767857U, 0x3e4f9d113c1c99c1U,
  0xbe4627743e526f13U, 0x3ebc4b3fbc752918U, 0xbdd3f4a1bd73c6f0U, 0x3e632beb3e6bf1b1U,
  0xbe7917d03e542c6fU, 0x3eb5ddf9bbd68195U, 0xbd1fae8b3e1654c5U, 0x3e62267dbd8eeadaU,
  0xbd8a456f3dac9f44U, 0x3dde563c3e831a99U, 0x3c31bae43c98b5b6U, 0xbd68a9403d1f80c5U,
  0xbd24e86d3dfdd013U, 0xbd95f0a0bd38c17eU, 0x3e1a698cbd8e49bdU, 0xbd4332c9be0689ebU,
  0xbd838f7d3dec96f5U, 0x3d3b520d3c24fc65U, 0xbe7847373d229b47U, 0xbce03600be6d4b56U,
  0xbe38e113be26c0d0U, 0x3e0451853e400eefU, 0x3e8a3960bd78471aU, 0xbe2f11debd7f32f0U,
  0x3cec7daa3e7add45U, 0xbe84e39d3d73e5c7U, 0x3ca519dbbc80baadU, 0xbe1251b93e83ec46U,
  0xbdbf01f13dff8aecU, 0x3c860f5b3c79dab1U, 0xbe002eb6bdde1186U, 0xbdc617b33a8971eaU,
  0xbc6132bc3d978500U, 0x3db44f1dbc62c7daU, 0xbed08671be02bf6aU, 0x3e0b2a3abe4825d7U,
  0x3e1bfe5a3d930643U, 0xbcca204ebe132d6eU, 0x3e17377b3e4b3468U, 0xbe3a8bc23d69d460U,
  0xbeb83dddbcaf35f7U, 0x3e4df21d3e4bd500U, 0xbbe808d23d6a0aa8U, 0xbdc7112a3ceaeeb6U,
  0xbe22d79e3e063fcbU, 0xbe02806e3e0fe8dfU, 0x3d34b7443d0da6a3U, 0xbd78a1babca6c1daU,
  0x3d27636bbd8b1eaaU, 0x3dafb4edbd862539U, 0x3d2ca5553d63d94fU, 0x3db15a693df895a2U,
  0x3ead835e3e58e860U, 0xbc9fa5a8be17b952U, 0xbe2de55e3c177b60U, 0xbe8c7a15bd966baaU,
  0xbe25d5a6bbba9226U, 0x3dc4e1c6be298747U, 0xbea66d62be131618U, 0xbf13acf33e558779U,
  0x3d6c6d80be36acd6U, 0xbe89d0143dc58252U, 0xbde636ed3c99ddd3U, 0xbec049b3be154d3fU,
  0xbe008aac3dae92c0U, 0xbe1711f93dcbf6a3U, 0xbda32ba33d218113U, 0xbcb0073d3ccac9aaU,
  0xbdac3256bd0afed8U, 0x3bbed9ddbd72a2caU, 0xbe59ad913d5cd530U, 0x3cdda5843dc7fd6aU,
  0x3dcc561abc06d88bU, 0xbead6b313d7eb120U, 0xbd0d3664bb117bf1U, 0xbf117eb13c3dae1bU,
  0xbdfe68bc3d314e7aU, 0x3e34b1d3be49c0ceU, 0x3da729773cadba22U, 0xbcf6aff13e40c0dbU,
  0xbe5f064cbdd74cb8U, 0x3e1a155fbe548212U, 0xbd2602d23d7c354cU, 0x3e393347be271d45U,
  0x3d9cd0ccbbd5542aU, 0xbb8c12ab3db8b552U, 0xbbb1a539bdcd0ce7U, 0xbd863ec83dabd78aU,
  0xbd3db5c1be54d808U, 0xbda90644be06d262U, 0x3ecddab3be383301U, 0xbe87d016be13fc97U,
  0x3e420adc3e175e68U, 0xbd10e08ebe925b33U, 0x3e0667f53e581a2fU, 0x3e0179c1bd669832U,
  0x3d8a78bf3e20f1e5U, 0x3e25ef353e18d918U, 0x3e6bea75bd0d8e62U, 0x3df2f5a83da811b9U,
  0xbc97c0ecbddee9d0U, 0x3d1cebd33d6280ddU, 0xbd75c937bcf45006U, 0xbdfdcc793d2d0230U,
  0xbd05c0d9bd1b2587U, 0xbd793ef1bd2456bbU, 0x3e4976ffbe0c5621U, 0x3dbd1738be672b39U,
  0xbe2b6804bea9f69fU, 0x3e2dbde83dca96f1U, 0xbd5e397d3e055c9dU, 0x3e0b1abb3dc7202aU,
  0x3e302303bdc816a5U, 0x3d366eed3df9e088U, 0xbed710b5bde25f01U, 0x3df23057bddcd280U,
  0x3e19fd743e2832e4U, 0x3e3295f4be0ce8f2U, 0x3e0bb5ef3d1b6a94U, 0x3d8e4f0dbd265704U,
  0x3e43328c3dce846dU, 0xbd85bf0abdf79e46U, 0xbc8e6dc4bd238968U, 0x3cd8cf14bd8036acU,
  0xbca8df573e373107U, 0x3e043ec1be6b96d4U, 0x3ddec18cbe2515dcU, 0x3f1a8099be96cd6fU,
  0xbdcde9a2bcf80eaaU, 0xbee33aa8bccecacdU, 0xbdab28f0be8730bdU, 0x3d976757bca7b7ddU,
  0xbe0e15ddbe39f4bcU, 0x3da907c93e0028a0U, 0xbdf58da4beae0be2U, 0xbc5a6ca6be0e3adfU,
  0x3d2f86373d8960b0U, 0x3cc412ffbe527eaaU, 0x3c5db2e9bd4312b7U, 0xba59d0393c1aa9c1U,
  0x3d15ea733be10130U, 0x3d871e0fbc2dddbcU, 0x3d82a2d9be9c99b7U, 0x3d9ff48abe56ec66U,
  0xbd0f172dbaf20bf9U, 0xbc2045843e13739aU, 0x3d955e643e352645U, 0xbda428863d9afcd6U,
  0xbe87ff3b3dc5eb14U, 0x3dcc4f43be06be2bU, 0x3e28137d3aca3f66U, 0xbde39fc4bd77aa60U,
  0xbe8c6d543d9741acU, 0xbe51b5a93e868c60U, 0x3d8d8283bc9fcd2dU, 0xbd49c15abc9e5a27U,
  0x3d054945bda6f7f6U, 0xbd0f55c93adfa7fbU, 0x3da0aa98bd099ae4U, 0x3d9e77cabcdc2ceaU,
  0x3e19df83bd20f883U, 0xbe8409da3de90d12U, 0xbd254160be405665U, 0x3d58443d3df871d3U,
  0xbd9b5d453e3425caU, 0x3dab25c93ddbb99fU, 0xbd9e3ffa3d8a7391U, 0xbe2d9026bcbb0f3aU,
  0xbdceafdbbe49771dU, 0x3dab168b3e3293e4U, 0xbe0842303d77da3eU, 0xbd6d39b9be274197U,
  0xbc4a4cdcbe1b6810U, 0x3d2a94023d5b7ad3U, 0x3d186badbde39caeU, 0xbe2573233db59f8dU,
  0xbe0a8e01be414615U, 0x3d9d268dbc8a6ddeU, 0x3e9c0d843e1ee5e6U, 0x3d0ffd603cc250ebU,
  0x3c3af7d63d698a5eU, 0xbbf0c9c6bbae89a2U, 0xbdb1483a3e0b3ff8U, 0xbe5582ca3e3fff16U,
  0x3dcf3b6d3e317d93U, 0x3e0952553cf3856bU, 0x3cdd6c3e3cc999faU, 0x3d2d2282bb12ddd3U,
  0x3c3b4dba3d4f87b4U, 0x3cae4435bce6e870U, 0xbd9fd2183d724cd8U, 0xbd0787833dbc63ecU,
  0xbe46f7ab3d856eebU, 0xbdaa26de3e49e953U, 0x3da3bad83e02a0f7U, 0xb9914a2b3dd4d8f9U,
  0xbd773d8abc914566U, 0x3d8079233e712e42U, 0x3dd1005dbe2dec6cU, 0xbf0035433daf3a90U,
  0x3c397c6bbd0659a5U, 0x3d12bea9bb73f3a9U, 0xbea7fb133e34c3a7U, 0x3e087d7dbe60503eU,
  0x3db52d7d3e8abbdeU, 0xbe050fee3e32872bU, 0xbd6f6d57bc6f1e5dU, 0x3e273281be00f944U,
  0x3b9efebb3dd1c755U, 0xba24649dbdb5dd26U, 0x3d807d55bd83f1ffU, 0x3c91bc003d8ca797U,
  0xbd4a3970bb37fb6dU, 0xbc9e57f5bbacb1b5U, 0x3e973b0c3dded7b4U, 0xbe5ba2b43d18137dU,
  0xbee657d53e04c8a4U, 0xbea510f23e2bf139U, 0xbdf9ad053d112ef0U, 0x3dab480ebc97444aU,
  0xbeccdbf9befaa162U, 0xbd31be92bd2283aaU, 0xbbabde10bebd1cbfU, 0x3e08910fbe4932f5U,
  0x3dece5ba3cbbf2b3U, 0xbcf92b74bde185d1U, 0xbddf41a13bceac3dU, 0x3cefbe823d187bf4U,
  0xbda8d28c3dcf0bccU, 0x3d19e83abd79e129U, 0xbb3c81503dcfe835U, 0x3d19c9583d0a4f6fU,
  0xbddada6b3da6ff1bU, 0x3c881bc1be4b5a08U, 0x3ba333e7bdf7a749U, 0xbe57f88bbe97e579U,
  0x3ded5050bc8f3f8fU, 0xbe00f24a3dc65d27U, 0xbe71cf2dbe2e8689U, 0x3d89ed443ebb11d5U,
  0xbdf097ce3e30d5eeU, 0x3e07eb6b3e428af5U, 0xbde2eb0f3e702710U, 0x3bc2dfbe3c0ffa91U,
  0x3df5417b3cee1574U, 0x3c05993abd0dc04cU, 0x3d0f262abca3a8caU, 0x3c930df23c60694fU,
  0x3d8945d2bcb6f0a0U, 0x3dd6d652be172723U, 0x3e6b51efbe4b72b5U, 0xbbeb476cbd42afd4U,
  0xbcb1cf333cb70254U, 0xbed3c7b03d2d5253U, 0x3dec98513e2d551cU, 0x3e8e8f363d48f1ffU,
  0xbe6fb855be66eb2bU, 0xbe2773103e3f089cU, 0xbcf18e92be803487U, 0xbdf05429be5a32f8U,
  0x3dad20393b88c308U, 0xbd6b765dbda28703U, 0x3de262353ddab5a3U, 0x3a90a42fbb4ec26fU,
  0xbd2817d03cb4ead7U, 0xbce49cb6bd93c967U, 0x3db574d7bca6c6bcU, 0x3d3c1e13bc3f466eU,
  0xbd9330e93e281d6eU, 0xbe0272793e0f2a0eU, 0x3e06a57f3d39e57dU, 0x3e4bc7eebe24c92eU,
  0xbd3dff183dc86925U, 0xbe5615933e2c7a3dU, 0x3ebcde71bdb28578U, 0xbdb6f16bbdc7b1adU,
  0xbe019a75be0e8552U, 0xbcf575f53d96477bU, 0x3def23e73b820dfaU, 0x3e244323bdc02b50U,
  0x3d9692703d85027bU, 0x3b5242223d090c9cU, 0xbc17d9d3bbdd5675U, 0xbd6070c8bd1aa38bU,
  0xbd90cbeabd1113b5U, 0x3d80b7febd801823U, 0xbda430203ea50743U, 0xbcb664afba4e48d7U,
  0x3d6dca923ccb1fb6U, 0x3e48472bbec3793fU, 0xbe63aee8bddc734cU, 0xbe82f8a0bd72ebd0U,
  0x3e9e7fe5be96e33bU, 0xbe6b41103e2fe4c9U, 0xbccdeefdbe346bb4U, 0xbc93a3803e3f1612U,
  0x3c9a518ebd86ab8cU, 0x3e144ca93e29c83dU, 0x3d5d43b4bdf366b5U, 0x3d0f9b48bccc5340U,
  0x3da6de47bc8ac2e6U, 0x3c328b673d31ec1aU, 0xbd5889f03d183648U, 0xbcb4bdddbe1ed560U,
  0x3df150fbbdcd2762U, 0x3d1824473e94a315U, 0xbed30612be674239U, 0xbeb5b2343e80038aU,
  0x3decdbd23e0f7a26U, 0x3f079965be26a797U, 0x3d24ea78be9d51cdU, 0x3ec6cc5b3e456287U,
  0x3e717af93e04f717U, 0xbcef9f3bbe57adcfU, 0x3e680d5ebe7ad976U, 0x3e76dc14bd8ed74dU,
  0x3dac2ea53d9061e6U, 0xbde6756fbdabedf2U, 0xbba078dabda4fba0U, 0x3d8deea6bc4e8124U,
  0xbd5996eebd449b6cU, 0xbdd8ca373e00d3a9U, 0x3cf806f13d9bf74eU, 0xbd99ce9a3dad11b6U,
  0xbe8e93f83df62a11U, 0xbe8c143fbd391e1eU, 0x3cc7c550bddfc790U, 0x3e66b2d33d7b0822U,
  0xbb989067bdde7747U, 0xbdad16d13da5dc3bU, 0x3dddd295bd3d4eadU, 0x3dc1daf7be951aa4U,
  0x3e7fb1e73e553249U, 0xbe0bfc8cbe81202dU, 0x3dcc2b26bc097202U, 0xbe1dafccbe0f23a4U,
  0x3e3f0214bd1a423eU, 0xbe3fd2813db9f6feU, 0xbdf06074bd834f8aU, 0x3bb0394fbddba882U,
  0xbe512e22be9e46f0U, 0x3cfa6ed43dd3f19aU, 0x3d5b154f3e58ae92U, 0xbe451cf5bd5b80a8U,
  0x3d3826063d231887U, 0xbe4cccc0bb1ae8aaU, 0xbeae2b443e04b464U, 0xbd9ac320be368866U,
  0x3d09f042bb0ce2e9U, 0x3e6c0ebd3f0ea348U, 0x3d48b8493d4fa49aU, 0x3e3921013d99e085U,
  0xbcd2980fbdaada05U, 0xbafdd22bbd489abdU, 0xbc9e9c683da8fb3fU, 0xbd803774bd2a72cdU,
  0xbd060f2b3d6986baU, 0xbd51dbdd3df016baU, 0x3da4c12d3da9218cU, 0x3e1323a63ce09807U,
  0xbda212b6be2d1039U, 0xbe7a501fbe762df2U, 0xbdd86ea83dfb5822U, 0x3e624f903dd9b9a2U,
  0xbdb84e22be5789abU, 0xbca4f8adbe4dc25aU, 0x3e539acd3d435eaeU, 0x3d53982dbde39a72U,
  0x3d0583283d406d5dU, 0x3de15f97bc8a66a7U, 0xbc83a90bbd09a690U, 0x3d2ea4903d20b1abU,
  0x3d00821d3c9285e8U, 0x3d8b1bfd3def9c86U, 0xbe0c9afa3de1a392U, 0xbdc0f1843ca14dc3U,
  0x3cbaad34bd82d40eU, 0xbe2332da3e48531fU, 0xbd45d9473e20c7a8U, 0xbcb847a23ceb1d88U,
  0x3b85d8d4be1dd224U, 0x3e28e29d3d85799bU, 0xbe9a76fbbe422a62U, 0x3eec648d3cf251ddU,
  0x3e7087ea3d5b19a7U, 0x3e297e38bcfc4ee0U, 0x3dba1de8be2970a1U, 0x3dd23570be33c41fU,
  0xbe3806f33d90feacU, 0xbbaf1f273cef2c13U, 0xbd8c13813db5fc56U, 0x3c1421ea3dc2d2ccU,
  0xbd9329ea3e2b5824U, 0xbde4f8273d51ec15U, 0xbe81dd013e7074ecU, 0xbdd9f1ecbda110a4U,
  0xbcdde4823d95da91U, 0x3e98a5a43e9c873fU, 0xbd15fe833d8aa71dU, 0xbe684f253e436bfbU,
  0x3ea5e80dbe195f29U, 0x3d83e871bdccacb1U, 0x3c02a6da3d5405adU, 0xbdedd24b3e20b8ccU,
  0xbd9fa455be2fc7cbU, 0xbd674cae3d5a86a1U, 0x3da56ea6be3c3e65U, 0xbdb7412e3e02ff3cU,
  0xbdb6c2e2bacc66bbU, 0xbb5b88dabdee511cU, 0xbdbd1a8b3d725c22U, 0x3c8d4d8a3e1f3fdcU,
  0x3bb708153cfed133U, 0xbb8ac67d3cf879fbU, 0xb9212b62bdae86a0U, 0xbe7eaa183e46bd67U,
  0xbe0138983d53ec72U, 0x3d85b0b53c20db37U, 0x3e9768f3bef1cddeU, 0x3d1df621be3f1984U,
  0x3c644043bc68a667U, 0xbe554c71bdecdca9U, 0x3e9b9963be268282U, 0xbd9126e0bd09cd4aU,
  0xbb3b9fc4bc073eeaU, 0xbe1fb345bdca09f4U, 0x3e0e559b3db92326U, 0x3d7bdb3ebd8276d6U,
  0xbda8e8683d82c1bbU, 0xbe7f257b3cd60086U, 0xbe87ac57be814822U, 0x3d4e86f1bddc6e0dU,
  0x3cbb8d6bbe2a7f70U, 0xbe20d7c2bded916bU, 0x3dbfbb283c75328bU, 0xbdb5b17d3e605dc3U,
  0xbd103b6c3db9bef5U, 0x3df08787bd945f09U, 0x3badf8b83cbb3c0aU, 0xbda730a7be5977b7U,
  0x3e169b49be262a94U, 0xbccda6bebdd2158cU, 0xbb9375c3bbcaf721U, 0x3d27f3ffbe08e7a9U,
  0xbdbb5044bcc01692U, 0xbe5bcb0ebd0a546dU, 0x3db1ad11be36d68eU, 0xbca03be23dfb2366U,
  0xbe3f8ab5be374796U, 0x3e0f8e7ebd795be8U, 0xbe52e33c3d608623U, 0x3d979bd9be7ff130U,
  0xbdf858bfbe4a2355U, 0xbe6d3d213d05cc43U, 0x3ddf6eaf3e180d66U, 0x3e56e97b3e0d89d5U,
  0xbdefc969bd9c66dbU, 0x3e809d98bd948819U, 0x3e7a59c63e3f9b74U, 0xbb59ff223e33e7d6U,
  0xbe5a1cd93e0e7a91U, 0x3ded2246bdb870f9U, 0x3e085e4c3e3036e3U, 0x3d947ba33c79d2e1U,
  0x3c1e5d87bd09f031U, 0x3c8d2d86bdcd0660U, 0x3d0f47103e077b28U, 0x3cbd1df73d76b381U,
  0x3e80d913bd9df90bU, 0x3d58ee423dabe087U, 0xbd8ee89ebddd2de2U, 0x3e7e3fa03dd63409U,
  0x3e8a22c3be3a78deU, 0x3e774c7ebcbc7082U, 0xbe857b30bd9442d6U, 0xbdd1139dbe6316c9U,
  0x3bad23c33d573979U, 0x3ea47f2d3e4e3297U, 0x3d7084df3d88e7ecU, 0x3d383aa0be31b4b0U,
  0x3e1194a33ddcbefdU, 0xbd3dc932be20ca7bU, 0xbe5468113df9fe98U, 0x3be620be3daf3d6bU,
  0x3e69c1de3e354391U, 0xbe021dd43d2e2ed3U, 0xbee8649f3c8b724bU, 0xbdd722e93c03780fU,
  0x3de1b5123d2bbfe3U, 0x3f127b89bd926f0cU, 0x3e8710f43db7ab02U, 0xbe67e20a3e83d195U,
  0x3ccf4dc4be869289U, 0x3dc149b33d7f1ab1U, 0x3e15373f3d90e040U, 0x3da73ab0baeb0053U,
  0x3cff6d57bdd77e70U, 0xbd426853bd988206U, 0xbd5a8440bc9d8a57U, 0xbd8c08ccbd99e274U,
  0x3d709dfb3e1c8596U, 0x3d9cede8bdc988cfU, 0x3e0074943e609c5dU, 0x3d9cc90cbe595aa6U,
  0xbe2b908abe3f94f6U, 0xbe3d3dd5be9850f2U, 0xbcc64dc43da97f08U, 0xbe5a49acbbb2b878U,
  0x3e21c500bd80ec40U, 0xbdac79dfbe8f1e5aU, 0xbe5f7f7e3c453cd2U, 0x3e7c733a3e5e5729U,
  0xbc659134bd666f21U, 0x3e8ed5afbd0f2740U, 0xbe0444edbe315adfU, 0x3dc85e603db03b0bU,
  0xbda1a293bd0e35ccU, 0x3dedc985bcd706ccU, 0xbcd374ce3e4f61e9U, 0x3dc975093e02413eU,
  0x3ea2e7643e073db3U, 0xbe5925a5be981483U, 0x3ed1d4b0be60f5c3U, 0x3c67f2d0bd231f55U,
  0xbd64b9c43d40b60aU, 0x3e12b38e3e11af3eU, 0xbe3ea54fbd32e4aaU, 0xbe2c9f1ebe3eaa85U,
  0xbde6215dbe00c618U, 0x3e48e14cbd8d3c30U, 0xbd4d0890bd82eac0U, 0x3e32b34a3d609f2fU,
  0x3d62fed3bd12d704U, 0x3dcda25ebb10698aU, 0xbc812d363d63818fU, 0x3e27d3e5bdf85bb7U,
  0xbd7ccdc4bcf6411dU, 0xbd41f0fabca57d48U, 0xbe2f1ff8bda8b3b3U, 0x3c5f5607bdbf3329U,
  0x3da14d19bd2224ebU, 0x3c8f3054bdf3f3c8U, 0xbdc4da7a3da09fb2U, 0x3b9536ecbe3dfdb4U,
  0xbed0fdb3be0e6628U, 0xbe3e74613d93c33cU, 0x3e80a1aebe583f37U, 0x3e0e76b13e2d5f8dU,
  0xbe5aa0cfbe647520U, 0xbe97f5cb3d84ca5aU, 0x3de5d2f3be10b8c5U, 0x3cb48c9ebcff6ef5U,
  0x3db5de6c3da3e8d0U, 0xbbb43e063ce31945U, 0xbad521613b8e69caU, 0xbcf9913d3b45c19cU,
  0x3e85b3043d861106U, 0xbde8e8163d53c9c7U, 0xbe139a0d3dc12c28U, 0x3dc69affbe2e3163U,
  0xbdfe92dabdb2f5ecU, 0x3e51f8e83dce262aU, 0x3e908ce2be174531U, 0xbeb3571cbcc9757aU,
  0xbdd97b7ebdec6e27U, 0xbe304a3bbd56c213U, 0x3b9d5dc2bc7f0864U, 0xbe334425be2cc423U,
  0x3d8d38423daf377cU, 0xbdb00537be251fdeU, 0x3e0daf683e25a8f0U, 0x3daa6583bd87db37U,
  0x3dd7ae2d3e351699U, 0x3b992665bda183d8U, 0x3d9785a33e81a2dfU, 0x3e117b0abe89db7aU,
  0xbe24f2503e14cec7U, 0xbdeee052bebdc050U, 0xbddfef06bdb74341U, 0xbcc24896bd6d215dU,
  0x3e814aa03e4ca7adU, 0x3e85f57f3e0c8c40U, 0xbe6b9ab13e18a916U, 0xbdf44e4fbe8271d4U,
  0x3dbf34ca3eb6dc08U, 0xbd9ca5f73d19be5aU, 0xbd814850bda50c1fU, 0x3d5b2addbc77d448U,
  0xbdacf3073e0df261U, 0xbd9dd1f9bb9238d9U, 0xbdeef1023d8afa39U, 0xbdae5745bc9d24b4U,
  0x3ee4ab30bcd660f0U, 0xbdf54f36bd81d1caU, 0xbeb8b36d3e004bd0U, 0xbdd99048bda27618U,
  0x3cacdedd3d85a499U, 0xbd1c5ac5be27cb4cU, 0x3e6f2349bd686e28U, 0x3db0b2cabe1f3a99U,
  0xbeb08f943e0f6328U, 0x3e07ea5f3e9c5905U, 0x3d69cacfbdb0e7cfU, 0x3e323c9d3df04ac3U,
  0xbc9ce1f83e24ff1bU, 0xbcd96f5e3debbe2bU, 0x3c9a6fff3d4d1206U, 0xbcbde2bf3c75470eU,
  0xba02699ebdacee50U, 0x3dc46f013dd7c240U, 0x3d79347c3bd07b1bU, 0xbc9f70dd3eb283f9U,
  0x3e9f865fbe475a99U, 0x3d2436f0be219c7aU, 0x3af05bb4bdde134cU, 0xbeb39571bb5b6b3dU,
  0xbe8f2a1c3d25a5e2U, 0xbe267928bc8a91a9U, 0x3e043bb83e19b482U, 0x3da4e7053c807606U,
  0xbdaebffc3ea85204U, 0x3e000e2c3d7abd6fU, 0xbd61d4b83b602baaU, 0x3dcf57203db1e720U,
  0xbe0497edbe2c31c6U, 0x3e0354cdbe027f2eU, 0xbcaaf1863e13b247U, 0xbd308253bd826a03U,
  0xbe3a760b3db6d75bU, 0xbd8483afbf082aa7U, 0x3e87740bbd0244eeU, 0x3cc39ce53c7d95d5U,
  0xbda4b65c3e29061bU, 0xbbf8306abe737911U, 0xbdd4ba623c937f1fU, 0xbdf911913e4b8e6aU,
  0xbda7b9173e42e258U, 0xbde99ec0be37f1ffU, 0x3d6ec9eb3e89368bU, 0xbe336a9e3e5b43cbU,
  0xbc9aec8fbdeaab99U, 0x3c860518bd65f2c7U, 0xbde5395fbd0c3200U, 0xbd6ca481bda9ee91U,
  0xbcc7641abd0e42f1U, 0xbdd56a9c3cf63228U, 0xbe68ffeabd039cd0U, 0xbdf90d1d3e74de87U,
  0x3ed5b665bd84d806U, 0xbe83c91d3e97898bU, 0x3de56a693e157a81U, 0x3db4a97b3e158918U,
  0xbe55e82cbc31a4a2U, 0x3ec4affdbe2e9554U, 0x3e9214f33dd75f14U, 0x3e7c7f54be7dbd96U,
  0x3e0f4bcd3e403110U, 0xbd4e08b2be8f2291U, 0x3e5afa173d2e92f6U, 0xbc3d1baebd8dd537U,
  0xbdf046ba3db53525U, 0x3c2b3817bc3f4eb8U, 0x3d83f034bc97dfa9U, 0x3db08c74bc74301fU,
  0x3e8668423ce35d6cU, 0xbeaaa14bbbd75e88U, 0x3e479f963e459e04U, 0x3d41a687be9cf86aU,
  0xbcf4c81f3e843a06U, 0x3ec706bebe916462U, 0x3d5b7c9dbd2d175dU, 0xbd83ea39bd923f39U,
  0x3de1db433da362d2U, 0x3e3bb0d43ddec235U, 0xbe2a09833d85ec72U, 0xbe1ac74ebe1caa0dU,
  0xbdcc05c8bc270302U, 0x3d40c49cbc8a43deU, 0xbdba8a9dbd09937aU, 0xbe24f1e33d85dec1U,
  0xbd19a856bd33085bU, 0x3de295f5bc46d0ddU, 0xbe5ce3d33e7798faU, 0xbe17220b3ec7cf31U,
  0x3e54b089be2f40a6U, 0x3f071a9d3d231404U, 0x3cf0696dbda2bcdbU, 0xbea55ea53ca5eec1U,
  0x3eb4341bbe1ed70aU, 0xbd17fc903eaa9291U, 0x3cc17a5bbd0e3313U, 0xbd8ad8113d23e417U,
  0xbe1285dcbe5d98b6U, 0x3e76602ebe72a051U, 0x3dbd5887bd9f1a07U, 0x3e354b0dbdc823e0U,
  0x3e057600be181d52U, 0x3d7f75083c92dbb7U, 0xbb3f7bf1bda2b69cU, 0x3d9774763db6d431U,
  0x3e833476be6f232eU, 0xbe9198763ebdd108U, 0xbd2fb04d3e09ddfeU, 0x3d8a5c913e3a8938U,
  0xbd1634f73d594a95U, 0x3e4e77f0be62a0edU, 0xbee35d153c89bcd7U, 0x3e9aa5c83d43a456U,
  0x3e6a3abcbd015c62U, 0x3e144677bcdbe579U, 0xbe1a40b0be38aee2U, 0xbce8db083dcca0d6U,
  0xbd3b82b0bd358d2aU, 0xbcdda5c0bc34ef77U, 0xbcc6868ebd0d6a55U, 0x3c05e8b9bd341434U,
  0x3d09b8183cd4b2f5U, 0xbd032c9a3d35f79eU, 0x3e14659abe1cb32fU, 0x3e19a0953ed4af21U,
  0x3e893932bce8ddb0U, 0xbddb594ebe1daa5dU, 0xbe1fca76be009ce8U, 0xbe8c9488bdf17931U,
  0x3d816d603d9767fdU, 0x3e5107193e02cbd9U, 0xbe559e45bd512268U, 0xbe11cfd63df9b1b5U,
  0xbd44e29c3e2537b5U, 0x3c2ff021bdbf9073U, 0x3d3e749c3c027d34U, 0x3dc641d5bd851d6dU,
  0x3d4c64843e147951U, 0xbe33b5fe3bf65dc9U, 0x3c8d60333e00c428U, 0x3d5a28993dcf5d33U,
  0x3dcae3b5bdb319f3U, 0x3bf925333d893566U, 0xbe071e5ab9e9c31aU, 0x3d1f178d3dbdc0d5U,
  0x3e38eae13bb95259U, 0x3ebb49473dd9bdd9U, 0x3d6a6625bd8ddcd8U, 0x3e5c9ac6be4bd21eU,
  0xbe858529bdce377fU, 0xbe51585a3df4d425U, 0xbe0536f53d9c8978U, 0xbd1f7d47bd18dd3bU,
  0xbde45f483e11ea0eU, 0x3c56cf3e3d008bc0U, 0x3deeb70ebdbb927aU, 0xbdc8072d3b495ecbU,
  0x3c87636ebddf76d8U, 0x3cf1a2273da78d28U, 0xbe3bce7ebba47e11U, 0xbdbc4b0e3eaf37ddU,
  0x3e8418a3be8519f7U, 0x3e975f4c3ed41cb9U, 0x3e2b4c523e04a02bU, 0x3d287129be54bc13U,
  0xbe7742efbddb9289U, 0xbe16b1603d0e4da1U, 0xbe2196743d927ef7U, 0xbe030084bd63c9f9U,
  0xbe1877423dbcd598U, 0xbd34e27dbc9d0b3dU, 0xbcdb44203c88c3d7U, 0x3d8f4cca3da25d75U,
  0xbd6b00f3bca4d1c2U, 0x3bf3149dbc8b6d35U, 0x385aa19cbdb9f74eU, 0xbde0d2e13d349d25U,
  0xbd2dadd4bd424a63U, 0xbd7dae9fbddfd87fU, 0xbe8635dd3c558b04U, 0x3e01e41cbe0ec388U,
  0xbd5b632bbd0fea85U, 0x3e95d49ebd345bfaU, 0x3e1a7e9d3e182d00U, 0xbde0cc58be1f0627U,
  0x3c1519bf3d410ea3U, 0x3caea4a83e54c978U, 0x3d71b3473e83d3f2U, 0xbe60001a3c64bdd9U,
  0xbe0e02f93d31a9efU, 0x3cc592ecbcee82d3U, 0x3ca1ed6e3de44cc1U, 0x3d9462a63d1e4f78U,
  0xbc7ac0d0bcf7ae15U, 0x3d1060b83da2e86eU, 0xbd3a3f6a3d46dde3U, 0xbca2b23cbdeae015U,
  0xbd0188933d5aa249U, 0xbdee344d3eb47f07U, 0x3ddd52863e1f3d9cU, 0xbd85df993e54c42dU,
  0x3e80c1a1bb56c684U, 0x3dbb0395be58ea71U, 0xbe32ce123db12bd8U, 0xbe76ec423e79a50eU,
  0x3d31b19b3e76703bU, 0xbd0bbef93da50962U, 0xbc3332c5bd813d0aU, 0xbc58ed22bdf9d280U,
  0xbe2c65f53cacc42bU, 0x3bc4b809bd9441f2U, 0x3da732003de177e4U, 0xbdec3e5bbd6ef735U,
  0x3db1af003e0ef491U, 0x3e0d20893e5488bcU, 0xbe077323be4f6499U, 0xbeac519d3e240a53U,
  0x3c86fe48be04322cU, 0x3e37952bbe07d91bU, 0xbda923333dd64100U, 0xbe1ae7ebbe18680cU,
  0xbd73f77bbe09bb0cU, 0x3a84f1bd3e203e6aU, 0xbe29f7b83da66946U, 0xbe9d4d2abe480e64U,
  0xbbc761963d73a8a9U, 0x3e23245fbe2d3878U, 0x3d86165f3e01a9c7U, 0xbd229ccd3e35810aU,
  0x3c9fcb063d632777U, 0xbd9a14c33e1435adU, 0x3e91eda5bd9cb9c3U, 0xbe8d016ebf0501c6U,
  0xbe0e3337bd294dbcU, 0x3e2c0cb93e2b7639U, 0xbd8169aebd90e930U, 0x3e4aabf1bd73dfa0U,
  0x3e2236753d41da55U, 0x3ea70fa2bd36c32fU, 0xbdb5beed3dda6655U, 0x3e98a5603c8a5b64U,
  0x3dac7221bde413d0U, 0x3ea7b4f33e191624U, 0x3d41a3bdbca4661cU, 0x3dee18c83d1e7f97U,
  0xbd2c7f83bc481b08U, 0xbdb0fccebd803d7dU, 0xbe09bdd9bd1364c3U, 0xbca9c330bbd14880U,
  0xbe80e715bcd07a3cU, 0x3d5a3de6be80226fU, 0x3de3b7febe81b2e1U, 0x3dca124e3d3d84fcU,
  0xbb3eb35bbdc7ada1U, 0xbe43f443bd261409U, 0xbea35c5fbeb570f0U, 0x3db24a3f3e3a8ea1U,
  0x3e2309b23e03f72cU, 0x3d51c0a03dd21b05U, 0x3d63b09c3e9131b2U, 0xbc2dee70bddb5a89U,
  0xbdab1d683d11fab2U, 0x3e03bea4bd1d9c99U, 0xbcd359003da900caU, 0xbe2c61ecbc44548aU,
  0xbd7e334e3e301507U, 0xbd6b66babcc9c9f9U, 0x3e4127fabd6a4a71U, 0x3e1eac643eb1b559U,
  0xbdd68388beaa3ae2U, 0xbee014bc3d7aac84U, 0xbe5e4ab1bcf6bfbcU, 0xbe422d3b3d8031c3U,
  0xbd2f3c89bdaee76eU, 0x3e108cde3d14b6dbU, 0xbe2af7c3be6aeed4U, 0xbe7dda793d94f04eU,
  0xbea715c53d9b44ddU, 0x3bc853ea3daf7dd0U, 0xbd8e4089bd9a356fU, 0xbc4c9c4a3e2ea275U,
  0x3d0063bebbe850ebU, 0xbdce91283dc806d0U, 0xbd3c87f6bd5edecfU, 0x3bfb0a41bd6fe200U,
  0x3d338f3fbe304f1dU, 0x3de917fd3d70679bU, 0x3e0b1bcbbc7df6bfU, 0xbdd2fc8bbd251d3dU,
  0x3e2efab7be22bea4U, 0xbe890748bc8fbb71U, 0x3e2cecb13dda1e91U, 0x3e6fe4d3bd8de403U,
  0xbd8562453d80dda9U, 0x3e5186e53ea0a6beU, 0x3d63b97f3c3dfac0U, 0x3e26f7223d0bafd1U,
  0xbdf460543dcf0b37U, 0x3da00c23bdc1e0eeU, 0xbd10ed67bdb17fbeU, 0x3dfa61e5bd0e46c2U,
  0xbd8d99663d1701f3U, 0xbd67d0313e2ee800U, 0x3df7dc1dbde2e569U, 0xbcef770dbeebb6b9U,
  0xbd25bf5cbe5d39d1U, 0x3ea03591be7078ceU, 0xbe06d10fbdf5a1f2U, 0xbd8770febd94a753U,
  0x3d834367bd13e824U, 0xbd7face63eb069c3U, 0xbe9d833cbe25faa0U, 0x3e25313dbd0b008cU,
  0xbdb273d13d9b9f51U, 0xbdc9d782bc60eaf7U, 0x3aea980d3e1105bcU, 0xbd41c2eabaf4160aU,
  0x3c7c6af23daef981U, 0xbe262e4c3e0e87f5U, 0x3c224b3bbd09df4bU, 0x3e2e70463c5612f3U,
  0x3e04c4e63da390aaU, 0xbda688463e6e0538U, 0xbd1646273e4febcdU, 0x3e9a48a03e82fa9aU,
  0x3d050d70be1b623aU, 0x3d1a4a8b3c733b00U, 0x3ce7099b3ea8a6a3U, 0x3e807b9bbdb689b6U,
  0xbe14e0523e268100U, 0x3c99d0483e82ca9dU, 0x3c98ceec3e816dafU, 0x3da67f863e80528bU,
  0xbe2143553d03f6e1U, 0x3e0318a7bce7c26fU, 0xbdb3573bbb4b3fa1U, 0x3ce9cb11bbcb5937U,
  0xbd9d4da2bdf6edbaU, 0xbd63d7183e088db5U, 0x3d810aaabd192edaU, 0x3cfad2973e1a3284U,
  0x3e20f680bd2dbd03U, 0xbe83d3ff3e7edb07U, 0x3d8413be3e38244eU, 0x3e236f423e8daa07U,
  0x3e0f571d3db0d783U, 0x3ccefa9f3d948e68U, 0x3d549184bcca3c20U, 0xbe2632d63dc1a9f9U,
  0xbdc8c7983ceeb3ceU, 0xbe0cb2133e3de17bU, 0x3dd5baecbd5c80ccU, 0x3d88084abdf916b9U,
  0xbdd78b773d6eb37cU, 0x3d0e68803a8e3fc9U, 0xbd1cb7043d3700c5U, 0xbd56316abd64fcc6U,
  0xbe8e74c23e0a32d2U, 0xbc124038bdba9895U, 0xbda7b5013ada1d4eU, 0x3efe8847be4f03c7U,
  0xbe50481bbdd10643U, 0xbcb428cfbcfc65ddU, 0xbe17df86bdfc8ae4U, 0xbe591a3dbe64983eU,
  0x3bea32743e2b4e73U, 0xbe0c4171bcdab0b5U, 0xbd26870ebe48b49bU, 0x3dd8c9c73e4b476cU,
  0x3c48fb163cd3fe6cU, 0xbb90515cbcf443c6U, 0x3c70c51d3d631b1fU, 0x3cce6820bcb4237eU,
  0xbcdf60363da9e63aU, 0xbdb25a353e08f497U, 0xbeb35e0e3e28ae0cU, 0xbdc861bcbe368d00U,
  0xbd733068be292490U, 0x3e9e5ea8beb20b39U, 0x3dd4e5e33e400611U, 0xbf0118dfbe3cec12U,
  0x3e667501bd6bfc87U, 0x3d521c263e74e37aU, 0x3cb0097f3a982d82U, 0xbda14d36bdb50643U,
  0xbe727c963bf389c9U, 0x3db08e523cdd0b93U, 0xbcb9c7b23baab941U, 0x3db505503d8ac75aU,
  0xbc9a8afcbcc16c49U, 0xbd1e5406bd3e7bd0U, 0xbc29094c3d988adbU, 0x3d9ccdd4bd32cc69U,
  0xbf15bf35bcb877d8U, 0x3eb470d6bd54aeccU, 0x3e706f8c3d1b5d8bU, 0x3ec7c959be545952U,
  0xbd6414b23d15a279U, 0xbead3165bd7f238dU, 0x3cfb4148be94cfafU, 0xbc30146e3e1e1901U,
  0xbda5e0fd3e1031bfU, 0xbe39afefbe5323a8U, 0x3db938acbd79bda0U, 0x3e7931cd3e05fb41U,
  0x3d3433253aff578fU, 0x3dbafb193d59c399U, 0xbb8b1afdbde58272U, 0x3c2a5c77bdedf4a3U,
  0xbdbb71ddbde32343U, 0x3e3de46d3d9eef98U, 0x3d6bbf573eb8a18fU, 0x3d7c9b2dbd46d4e2U,
  0x396551ffbe53fafeU, 0x3e73db78bdd85e07U, 0xbe341effbdcf58d3U, 0xbe885780ba62c010U,
  0x3e27e7f5be7826cfU, 0xbe3bcfd93e9cba9bU, 0x3d82c21dbe20b516U, 0x3aea7e473e30777fU,
  0xbe416ebd3c290fbdU, 0xbc9e3fca3e0734b4U, 0x3db14cd9bde7f21aU, 0x3b8c7d59bcc38655U,
  0x3d9da858bd6ba2e2U, 0xbd0e5472bc23dff2U, 0x3d6edaf23d152053U, 0x3d81b7233d2ada06U,
  0x3e849d8c3e0c5513U, 0xbdcaf0803e574719U, 0x3e989af23db67ab9U, 0x3eba9867be8e551cU,
  0xbdf666173d6c2103U, 0x3de091cb3cebe010U, 0xbec8f1083e9dd16aU, 0xbf0b960bbde03f99U,
  0xbdc43ab73e92b38aU, 0xbdbec00e3ea1a526U, 0xbd962649be4cb5ddU, 0xbdaac4973e8eb2cfU,
  0x3c90ba69be011749U, 0xbbb007babe1dbdd9U, 0x3c2b0f3039f75b2bU, 0x3d975d9dbd31a038U,
  0xbd28e13d3da11866U, 0x3dae07c73d07a05aU, 0xbd869392bd2b3179U, 0x3ddcf3e33dfb20e4U,
  0x3e2e1e9b3e56e23bU, 0xbe207d253d8c2808U, 0xbceea7c0be2a2bbfU, 0xbbbfc5c63c961d3fU,
  0xbdaad52cbea27af4U, 0x3e063c64bd386d6fU, 0x3e89d9093db094efU, 0x3e25a643bea56402U,
  0x3e7e65c63df59869U, 0x3d9b9c35bdc5209eU, 0x3e1dbed8bcb291c0U, 0x3e32190cbe37beefU,
  0x3d3042833e2252e4U, 0xbda2ebcfbd327231U, 0x3e3d36cbbc198df5U, 0xbd5292c73cba53c9U,
  0x3dbc77d3bc9f926fU, 0xbc9d85b93e6af302U, 0xbe2e3c9a3d816f2bU, 0xbe1aab083e3e8d24U,
  0x3e15ef77be052861U, 0x3f01a5a63e98f68cU, 0x3e9e458bbd62cdadU, 0xbdda6d363e8facf1U,
  0x3dd770643e6a30c8U, 0x3bb722783de4bb2bU, 0x3e4fea6f3e1b4bb4U, 0xbe472927bcfef5aaU,
  0x3dbc92d93e4e92b5U, 0xbced22943c2d452bU, 0x3c19a952be165c5cU, 0xbd5201603d717593U,
  0xbdca0a86bdc18ecaU, 0x3e3767433ba3d906U, 0xbe37ef28bdb373d3U, 0x3e1bfbd33dc2b45fU,
  0xbd2fe9613ebe4866U, 0xbe49b8f9bcb30facU, 0x3e2918a83e58b084U, 0xbe01000f3e7eb19bU,
  0xbe11e6223e3b3c18U, 0x3d85d6d4bcbdde8aU, 0xbdadcb273d273c19U, 0x3e8b11493d9a2607U,
  0x3d2fac09bb0dcfcaU, 0xbe8479073dfd2615U, 0xbdc0c6a5bca348eaU, 0xbddad5f2bb11063dU,
  0xbcbdd0443d489f3bU, 0xbdac762fbd4abbb7U, 0x3d8d674ebd43d63aU, 0x3d447c233d4bccfdU,
  0xbd37eb10bc316afaU, 0x3d5028ea3add0e29U, 0x3e51213ebc8223d1U, 0x3ee852b63e55ed57U,
  0x3dfb48693de9f0efU, 0xbdf08bc7beb82e4bU, 0xbe884b74be3b04c6U, 0xbe9b54623e7d999bU,
  0x3ac47b3abe71215cU, 0x3de020c63d93fa78U, 0xbdb4674abd9b1ae2U, 0xbe4afc193d0fef68U,
  0xbdf5c5803c6ef98bU, 0x3cbe481cbd55f3a0U, 0xbc12a18dbb8c12b0U, 0x3d83ff3f3da196daU,
  0x3d3c36cdbdd02900U, 0x39e32fc63d45faf9U, 0xbc69ffbfbe698bfaU, 0x3c0f39ebbdfa2735U,
  0xbe50b18fbd05ecf4U, 0xbe12e278be32c6a2U, 0xbc8a68d0be016e36U, 0x3eaf431d3df74f01U,
  0x3e3d82803edc1f18U, 0x3c78c201be1bc637U, 0x3d58b4dabe1558f8U, 0x3dc025ec3d085151U,
  0x3e3312bbbdbc3eb1U, 0x3db08633be27db89U, 0x3dbc0f4dbdc46afaU, 0xbdcea751bc0c20dfU,
  0x3dc899943e18d089U, 0x3d9c4fd5bb1fa2caU, 0xbdfba10e3e0264a3U, 0x3d5b4d0a3d25a8aaU,
  0x3e0ed74fbd1ff729U, 0x3df92d423f03d31bU, 0x3d7995f9be0f5e24U, 0xbd1405023e6d9361U,
  0x3e3a93383d8a757eU, 0x3d4d8b07be176137U, 0x3e9c686a3e05b210U, 0x3e84f3be3dd9c513U,
  0x3df4251a3c7fc91eU, 0x3e5fc5663e9ca3bfU, 0x3e0f1a423e6b29cbU, 0x3e28e507bdd7722eU,
  0xbd281f823dc714c0U, 0x3c058a113ca32ab1U, 0x3cdae1b1bd1531baU, 0x3d0b030e3ddf8590U,
  0x3da8cf1fbb7e1671U, 0x3cd4efd83dee0a19U, 0xbdb6bf86bd84bdbeU, 0x3ca5d6c93dca54dfU,
  0x3c06e2533e365c86U, 0xbdb745303ee95e09U, 0x3cf4d4a2bd81f4a2U, 0x3e32e2c23d3a42caU,
